[PAD]
[EOS]
[UNK]
[CLS]
[SEP]
[MASK]
the
of
and
to
in
a
our
for
that
or
is
we
##,
on
as
are
with
from
by
The
be
million
have
at
this
We
not
which
an
was
may
will
other
its
##s
you
I
In
any
.
quarter
has
it
sales
could
were
financial
s
business
more
market
increase
cash
these
year
net
Company
new
also
growth
operating
than
ended
Our
due
31,
increased
over
income
such
-
months
revenue
all
would
first
interest
compared
been
under
about
but
products
including
investment
##;
##)
related
their
results
30,
primarily
This
company
December
if
rate
price
product
As
And
##'s
some
us
capital
tax
can
during
costs
stock
into
through
##.
approximately
do
believe
certain
value
up
based
per
future
think
result
million,
services
higher
â
three
cost
total
##ing
operations
should
fiscal
well
continue
impact
significant
credit
&
additional
share
subject
those
one
report
there
current
no
securities
assets
period
had
expect
information
research
lower
revenues
management
expected
##:
next
last
June
expenses
time
U.S.
just
September
earnings
third
expense
customers
what
So
Financial
For
changes
second
see
##ed
they
##d
average
debt
development
prior
very
ability
##e
number
March
loss
when
use
Morgan
margin
companies
your
going
same
material
##%
These
used
offset
decrease
provide
Net
risk
common
include
available
so
If
where
both
only
performance
loan
amount
within
addition,
each
billion
service
make
shares
line
end
Securities
equity
loans
rates
United
now
customer
basis
following
change
terms
EPS
two
Capital
potential
Research
Â
##â
statements
##..
estimate
industry
upon
most
##y
affect
A
out
##Â
associated
down
like
does
strong
acquisition
gross
effect
part
##s,
compensation
six
then
segment
decreased
losses
required
data
Other
included
markets
estimates
regulatory
because
years
On
Total
fair
made
sale
existing
activities
nine
investments
commercial
currently
provided
being
production
Income
--
12
##),
foreign
(
Stanley
Credit
demand
consolidated
less
Operating
how
economic
generally
insurance
return
general
between
issued
able
factors
flow
further
fourth
question
Bank
after
quarter,
balance
prices
high
accounting
Company's
business,
gas
portfolio
adversely
purchase
take
while
risks
reported
distribution
Inc.
marketing
decline
continued
good
past
various
##n
percentage
guidance
we're
look
sell
level
effective
property
increases
benefit
many
banking
overall
outstanding
target
still
asset
back
call
margins
long-term
get
really
below
##S
weâ
key
At
adverse
pricing
company's
Services
technology
year,
During
New
##0
given
partially
support
##ly
##t
1
who
little
includes
requirements
much
##"
Table
without
But
volume
maintain
recorded
likely
investors
specific
real
received
and/or
full
clinical
estimated
January
it's
driven
acquired
profit
2012
facility
range
Thank
date
large
However,
better
versus
offer
competitive
payments
several
2010
rating
##r
manufacturing
principal
2011
agreement
levels
plan
portion
periods
While
##1
regarding
annual
Management
Act
States
It
2009
·
recent
term
require
retail
sold
half
Cash
before
conditions
limited
North
inventory
2
valuation
##2
above
currency
##er
exchange
financing
order
reflect
2013
percent
##x
2015
go
significantly
re
2008
relative
systems
kind
liability
trading
EBITDA
contract
against
coverage
reduce
public
amounts
equipment
2014
consumer
provides
respect
reduction
position
corporate
payment
global
fees
important
international
working
2016
resulting
pay
3
##3
forward-looking
did
program
##5
right
state
ratio
positive
There
different
Interest
using
meet
liabilities
paid
Form
Stock
contracts
discussed
regulations
##a
impairment
1,
process
natural
since
2007
multiple
Item
similar
materially
oil
##4
them
2017
##,000
laws
Sales
federal
##C
To
major
##9
products,
own
facilities
need
mentioned
agreements
security
businesses
bit
mortgage
Markets
##6
remain
making
greater
around
Equity
US
capacity
##al
,
##8
even
reduced
##7
benefits
##A
control
obligations
quality
acquisitions
low
receive
All
2006
accounts
July
focus
deferred
recognized
actual
base
points
among
adjusted
experience
2005
##M
point
##l
##'
claims
system
ratings
whether
lot
applicable
flows
funds
views
software
administrative
Investment
transactions
estate
opportunities
across
local
reporting
cause
Inc.,
supply
October
Exchange
that's
negative
table
Note
historical
April
With
substantial
May
Revenue
work
must
attributable
gains
covered
t
assumptions
##on
particular
Chief
addition
access
improved
10
liquidity
result,
regulated
government
connection
International
continues
fixed
improvement
primary
plans
generated
gain
transaction
approval
Consolidated
that,
early
clients
core
obtain
2004
operations,
forward
we've
charges
rights
strategy
power
Any
described
mix
employees
group
costs,
Please
announced
relating
held
taxes
timing
activity
direct
know
##o
contained
2012,
respectively,
continuing
unit
favorable
notes
completed
give
2003
analyst
condition
increasing
comparable
previously
trade
fund
single
strategic
expenditures
lease
long
Notes
and,
store
selling
America
AND
proceeds
LLC
least
affected
Corporation
consider
##es
bank
amortization
2015,
%
##E
senior
2011,
defined
February
review
account
turn
2013,
10%
health
cannot
either
particularly
Results
2014,
2016,
grow
2009,
my
Market
looking
)
charge
events
improve
remaining
properties
spending
plus
approved
expectations
directly
2010,
view
patients
outside
compliance
time,
premium
##m
incurred
sales,
otherwise
until
want
Group
construction
set
resulted
comes
Limited
relevant
say
quarterly
individual
model
expects
way
subsidiaries
impacted
excess
member
accordance
programs
might
reports
few
expressed
expansion
Gross
license
basis,
So,
2008,
FDA
Although
buy
develop
leverage
extent
trends
stores
dividend
come
coming
restructuring
become
month
2000
itâ
repurchase
Contents
President
items
J.P.
2017,
slightly
5
See
2018
##D
efforts
Board
analysis
ve
legal
largest
network
policies
actually
ongoing
believes
##’s
Accounting
##B
2002
internal
November
##ng
difficult
beginning
independent
Under
private
Report
No.
(the
case
opportunity
entered
five
discussion
volumes
drug
allowance
Additionally,
party
remains
anticipated
seeing
sources
to,
Executive
needs
four
Europe
sheet
distributed
unable
August
typically
project
another
offering
##R
##I
patent
care
don't
note
represents
generate
resources
dividends
2007,
third-party
competition
differ
proprietary
fully
days
Risk
written
##P
OF
General
##T
help
owned
competitors
maybe
intended
declined
small
seen
herein
borrowings
energy
Earnings
best
You
provisions
projects
provision
profitability
joint
requires
providing
units
substantially
reflects
home
brand
client
personal
sufficient
American
consistent
2006,
growing
majority
factors,
services,
combined
located
initial
experienced
##ion
20
4
years,
me
already
free
affiliates
analyst's
First
focused
instruments
firm
lines
(1)
relatively
##X
record
event
short-term
said
30
determined
funding
stocks
Federal
analysts
aggregate
assets,
forecast
reserves
prepared
European
got
Company,
manage
things
drive
domestic
previous
off
Business
thatâ
fee
move
lead
life
advertising
areas
2001
environment
achieve
quarters
exposure
expand
discount
probably
Annual
filed
measures
possible
CompanyÂ
complete
treatment
success
professional
GAAP
highly
2005,
solutions
longer
leading
conference
disclosure
##g
seek
RBC
[DATA\uTABLE\uREMOVED]
recommendations
outlook
parties
however,
open
##k
considered
top
start
flat
sort
excluding
negatively
intellectual
policy
Co.
medical
employee
##L
Senior
maintenance
options
Iâ
circumstances
Wells
environmental
represent
growth,
50
issue
orders
Price
deposits
applications
recently
throughout
anticipate
combination
doing
goodwill
totaled
yield
100
market,
failure
diluted
perform
pretty
established
operate
carrying
having
Deutsche
##or
15
operational
people
Statements
Energy
fuel
##G
broad
Global
Growth
2004,
issues
put
couple
incur
Good
incremental
decision
underlying
option
##c
determine
holding
actions
20%
close
purchased
Analysis
components
8
Vice
Operations
example,
availability
taking
necessary
place
update
SG&A
##O
expenses,
6
pension
savings
S&P
Revenues
Suisse
revolving
subsidiary
presented
John
rates,
grew
markets,
Fargo
Phase
5%
##able
ownership
talk
reflected
reserve
investing
Hong
factor
materials
successful
here
indicated
add
team
customers,
2003,
appropriate
accounted
Tax
largely
Mr.
course
That
delivery
purposes
registered
solid
7
effects
recovery
preferred
minimum
responsible
roughly
variety
Canada
relationships
2018,
##-based
depreciation
volatility
times
final
personnel
limit
returns
short
pressure
secured
I'm
adjustments
/
again
litigation
deposit
day
report,
year-over-year
reflecting
issuance
assurance
initiatives
1%
larger
intangible
strength
Cost
(2)
successfully
vs.
No
industrial
application
critical
contractual
payable
you're
##i
residential
Securities,
statement
managed
measure
except
release
billion,
Agreement
Source:
trial
An
persons
comply
great
technologies
One
designed
2002,
is,
##N
dollar
near
us,
Information
taken
non-GAAP
area
##ve
revenues,
500
finance
compete
##ation
today
acquire
countries
big
developed
(including
board
design
pursuant
revenue,
allow
makes
hold
months,
income,
David
##h
forth
content
organic
digital
10-K
Based
securities,
positions
Rating
segments
saw
15%
section
##K
consensus
building
address
Asia
Japan
Â·
ll
component
PAGE
safety
settlement
beyond
every
realized
infrastructure
build
progress
##in
SFAS
fluctuations
##le
Assets
company,
##ment
Margin
along
arrangements
upside
reasonable
unless
opinions
deliver
refer
(or
something
Investors
11
##%,
added
law
drilling
Average
40
Products
trend
present
Loan
closing
integration
1999
uncertainties
obligation
projected
types
healthcare
China
Additional
although
investor
office
purchases
depend
rules
CS
receivable
generation
share,
conduct
evaluate
plant
##-
shareholders
values
##an
please
invest
derivative
patents
Adjusted
platform
dependent
Canadian
1.5
Current
obtained
improvements
improving
source
represented
contributed
standards
money
SEC
processing
you,
pipeline
form
leases
##H
Such
Because
National
normal
adoption
principally
trials
commodity
raw
candidates
When
South
website
adequate
test
Insurance
book
potentially
getting
From
attractive
conditions,
deal
mean
Companyâ
9
Michael
side
effectively
50%
type
far
##p
fact
Internet
commitments
25
results,
Year
ahead
Corporate
earlier
cover
Q1
retain
size
protection
loans,
##ne
Standard
equal
developing
national
obviously
feel
derived
Discussion
balances
companies,
3%
certainly
interests
Is
partners
donâ
Yes,
enter
##V
Q4
manufacturers
launch
face
Facility
thank
##")
nature
Commission
earned
late
his
wireless
entity
contact
Change
online
World
structure
authorized
##Y
Your
##F
period,
study
of,
Debt
timely
R&D
sector
aware
done
Some
mobile
Jefferies
2%
(ii)
Kong
##-related
am
alternative
18
completion
respective
reductions
run
Target
13
always
begin
person
Officer
restrictions
premiums
declines
4%
Buy
exceed
(i)
talked
variable
providers
youâ
action
original
create
information,
suppliers
quite
assume
patient
especially
Q2
maintaining
category
method
stated
Condition
rental
Q3
we'll
uses
accrued
shift
labor
directors
Medicare
recognition
Health
protect
venture
relationship
accurately
Value
15,
states
class
(in
standard
harm
yet
m
operation
##st
2001,
management,
members
recognize
active
special
card
Segment
guess
ensure
fail
contain
expense,
wholesale
came
prevent
land
maturity
Disclosures
Company’s
entities
##ce
known
agencies
water
often
traditional
things,
storage
##rs
Data
occur
Systems
stockholders
approach
What
despite
guarantee
provider
page
testing
12-month
solicitation
enterprise
involve
representing
Since
Power
profits
regional
Shares
intend
noted
ITEM
##ry
collateral
Fiscal
Singapore
adjustment
1998
means
rated
worldwide
mainly
reducing
Mark
integrated
consists
published
matters
It's
strategies
backlog
technical
numbers
##us
nor
banks
Not
Accordingly,
Private
##W
Changes
##ers
Risks
borrowing
questions
Well,
Statement
rely
reimbursement
stock,
assessment
covenants
60
taxable
square
6%
produce
delay
moving
conflict
14
appears
##nt
response
site
identified
Just
proposed
Rate
Macquarie
Section
Common
comprehensive
there's
sure
York
responsibility
Consumer
##”
Of
regulation
preparation
planned
##en
contribution
Given
200
##ble
##th
rather
##ic
advantage
Okay,
vary
name
25%
licensed
##re
calculated
##te
requirements,
##00
together
comprised
invested
decreases
8%
found
underwriting
Share
involved
began
institutional
judgment
equivalents
understand
B
depending
delays
IT
geographic
Excluding
1.4
keep
exercise
specialty
transportation
J.
transition
disclosures
consent
non-cash
manufacture
•
conversion
offers
lending
executive
24
o
food
Now
others
historically
predict
weather
referred
later
Commercial
restricted
electric
P/E
90
raise
space
We're
though
consideration
systems,
Part
##man
towards
2000,
Banking
stock's
acquisitions,
separate
expanded
economy
##000
pleased
7%
light
termination
trying
read
almost
Robert
merger
development,
parts
offerings
28,
brands
performance,
implementation
Class
why
estimates,
entire
I'll
guys
discontinued
specified
shall
smaller
adopted
he
Thanks
Home
targets
Investor
institutions
classified
incentive
channel
delivered
weighted
world
show
remained
subsequent
therefore
scheduled
unfavorable
II
performed
country
spend
depends
pharmaceutical
specifically
arising
Co.,
licensing
(as
identify
California
whole
##tion
weeks
default
segment,
West
corresponding
Operator
stronger
division
allows
emerging
Street
Key
utilization
press
unsecured
Expenses
30%
difference
once
categories
capabilities
Limited,
Can
agreed
Service
comments
decisions
modest
let
They
remainder
report..
Industry
qualified
CIBC
enhance
contains
1.2
relates
2.5
##ity
track
changing
it,
meaningful
receivables
16
Quarter
managing
hard
Gas
twelve
nearly
##5%
claim
communications
consist
media
fall
complex
JPMorgan
too
activities,
Piper
##ch
enable
consumers
reinsurance
17
find
value,
Analyst
document
1.1
Australia
transfer
##se
goods
governmental
Certain
calendar
States,
35
driving
1.0
suitable
seeks
incorporated
Expense
1.3
mean,
Over
FASB
starting
industry,
serve
pending
caused
29,
achieved
solely
numerous
19
reach
d
weak
1.6
shown
uncertainty
equivalent
Ended
LLC,
produced
##ting
weakness
future,
meeting
apply
stock-based
locations
shipments
##b
totaling
Weâ
reasonably
efficiency
center
dollars
advanced
know,
wide
prices,
indebtedness
seasonal
UK
procedures
thing
coal
commitment
assumed
Quarterly
implement
revised
Profit
comment
convertible
vehicle
e
studies
conjunction
sequential
amended
extended
##w
Product
unrealized
led
300
employees,
Neutral
closed
1997
processes
utility
bring
risks,
devices
cycle
businesses,
1.7
##ty
Asset
data,
execution
targeted
advisory
(see
paper
2,
eligible
partner
Taxes
expanding
(3)
pre-tax
hedge
electronic
Directors
investments,
Each
said,
degree
pro
Furthermore,
advice
45
disclosed
video
somewhat
debt,
inability
regard
Texas
color
rate,
shows
merchandise
de
Poor's
After
James
State
ago
By
institution
Authority
developments
),
21
(which
clearly
licenses
force
(Â
controls
lack
talking
12%
via
committed
goal
file
9%
##de
necessarily
Technology
Depreciation
constitute
offered
evaluating
Corporation,
sense
1.8
FINANCIAL
publication
prospects
franchise
affecting
agency
wells
details
statements,
distributions
Department
Latin
servicing
monthly
confidence
stable
scale
judgments
realize
again,
aggressive
rest
comp
maximum
shareholder
##co
listed
##.0
Flow
generating
sequentially
establish
expectation
condition,
bps
EBIT
Liquidity
Europe,
region
regulations,
status
operates
Life
challenges
discuss
##z
##f
agreement,
1999,
contingent
detail
2.0
ratios
Corp.
Before
changed
statutory
William
RESULTS
##ar
execute
research,
planning
productivity
recommendation
detailed
Prior
political
fairly
funded
served
granted
Group,
anything
in,
registration
recommended
consolidation
##e,
centers
royalty
ultimately
increasingly
Development
70
above,
seems
holders
U.K.
##ge
cable
Term
aircraft
rising
Also,
Further,
legislation
tell
trust
former
manner
dealer
Trust
one-time
yields
conducted
Australian
sites
Despite
computer
##ies
utilize
highest
objectivity
S
week
Per
facilities,
100%
jurisdiction
limitations
letters
transmission
PC
implemented
reason
ending
Important
40%
Preferred
Reserve
exclusive
Call
portfolio,
attract
rose
commercialization
issuer
spread
capital,
Many
rise
Canada,
carry
generic
outperform
##ll
program,
today's
toward
practices
replacement
assuming
Jaffray
users
##um
*
inherent
11%
1.9
created
accepts
##is
effort
sets
allocated
##ive
distributors
constant
traffic
jurisdictions
80
That's
unique
acceptable
placed
cash,
Paul
follow
reviewed
##el
A.
was,
##y,
field
Most
guaranteed
useful
Third
discounted
housing
Companies
meaning
collection
Diluted
launched
fees,
management's
monitor
analyst(s)
##u
broader
##ted
answer
assess
clear
rent
profitable
technology,
3,
22
universe
concerns
engaged
pursue
Coverage
external
temporary
differences
satisfy
owns
looks
(â
Valuation
U.S.,
Series
question,
Solutions
cases
determining
capitalized
Due
acquisition,
applied
cases,
joining
##.com
purchasing
Distribution
equipment,
faster
taxes,
accepted
levels,
wanted
near-term
31
150
morning,
Futures
hardware
extensive
date,
##’
receiving
device
buying
damage
1998,
presentation
operated
advance
following:
participate
lose
(iii)
appreciation
call,
##ly,
Liabilities
positioned
acceptance
started
III
BMO
semiconductor
Finance
affiliate
##?
concerning
Scott
Retail
deemed
publicly
amortized
inventories
authorities
36
partnership
##8%
Tier
1996
chain
engineering
outcome
0.9
crude
daily
hedging
drugs
auto
momentum
derivatives
America,
believed
year-end
ask
laws,
bottom
benchmark
takes
environment,
implied
air
occupancy
human
consulting
metrics
7,
##ck
System
governing
liabilities,
##ts
quickly
projections
measured
now,
programs,
consisted
Fair
request
REIT
How
interim
purpose
2.1
insured
Q
organization
adding
distribute
ten
23
##ing,
Factors
President,
evaluation
Act,
##ary
determination
include:
##et
product,
declining
Chairman
retirement
##ent
step
peer
Moreover,
Care
##son
Industrial
relate
##Q
side,
closely
secure
travel
behalf
Mike
Exhibit
Therefore,
flexibility
Bank,
attention
intends
opinion
C
##line
2.2
situation
IP
uncertain
I'd
Chase
officers
Hold
accuracy
seven
##ra
comparison
hand
##U
enough
absolute
morning
ultimate
facility,
Free
accelerated
CEO
essentially
Thanks,
price,
Mexico
13%
FDIC
driver
repayment
cap
occurred
vendors
automotive
certify
2.4
accurate
raised
challenging
updated
problems
include,
forma
San
inflation
risk,
##ate
Medical
methods
1)
Cowen
permitted
peak
any,
losses,
Conference
Marketing
Office
Even
Outperform
10-Q
Customers
8,
signed
48
##ness
volatile
collaboration
awards
O
profile
presents
non-U.S.
community
India
requiring
Smith
Enterprise
fleet
Court
objectives,
400
introduced
##/
reference
annualized
promotional
main
We've
models
pace
assumes
objectives
part,
Selling,
44
Regulatory
2.3
presence
drivers
confident
Loans
paying
75
exceeded
extend
allocation
called
fluctuate
technological
##0%
mid
##me
play
methodology
Trade
needed
understanding
maintained
enhanced
Ratings
repurchases
be,
property,
exploration
traded
(a)
supplier
##ous
you've
##ton
pages
raising
try
thinking
earning
count
running
plans,
charged
posted
whose
Amortization
contributions
manufacturer
training
issuers
including,
repurchased
quick
Air
27,
offices
"
##ine
I,
46
index
engage
cumulative
thus
Investments
impacts
wondering
representation
disposal
worth
them,
obtaining
Kingdom
Within
indicate
39
contracts,
transactions,
eight
lost
solution
Do
filing
rapid
news
indirect
requirement
earnings,
her
27
0.5
Holdings
conservative
networks
terms,
regions
scope
Resources
Underperform
bad
repay
behind
post
disease
all,
selected
28
Medicaid
approvals
Also
2)
there,
took
staff
M.
Steve
feet
[
summary
14%
Sector
##tic
Balance
Mortgage
26
job
commission
periodic
##nd
37
2.8
“
Three
Pacific
slow
LIBOR
restaurant
2019
criteria
television
3.5
fundamental
particular,
fell
think,
Finally,
Inc
##ia
assumption
ANALYSIS
plants
Financing
accelerate
notice
W.
year's
6,
reached
grant
supplies
steel
opening
Communications
user
phase
Deferred
agreements,
##4%
##ant
Pretax
series
condensed
tools
discussions
East
history
elsewhere
3.0
Goldman
Plan
D
compares
view,
Costs
authority
Brian
1997,
away
became
position,
built
2.7
rapidly
slide
well,
relied
maturities
hotel
deals
Real
so,
Richard
10,
Media
i
##9%
brokerage
1995
Government
Standards
weaker
exclude
subscription
Core
prove
mostly
for,
objective
basic
12-18
filings
##--
Past
assure
recover
Oil
commissions
leased
evidence
introduction
Significant
32
?
reliable
##3%
thought
renewal
4Q
cell
monitoring
stores,
##7%
Disclosure
welcome
Economic
forward,
becomes
##ro
Mac
guidance,
entitled
subordinated
seeking
recurring
M
retailers
visibility
2.6
hit
##);
basically
indication
Accounts
pretax
ways
family
involves
Are
forecasts
C.
49
measurement
front
250
bonds
expenditures,
leasing
spent
pressures
affiliated
THE
redemption
##est
trades
tend
replace
Bill
commercialize
list
general,
0.8
##6%
damages
0.2
Figure
according
appear
limits
branch
slower
55
##MM
penetration
Trading
achieving
##ay
ramp
42
0.3
efficient
assigned
participants
terminate
Actual
calls
##2%
Looking
35%
they're
gives
adjust
resolution
brought
performing
organizations
2.9
##]
Pro
such,
##"),
benefited
circumstances,
function
principles
CONDITION
act
contribute
Jim
Page
Return
DISCUSSION
Markets,
9,
therefore,
##1%
double
individuals
swap
consisting
features
by,
Y/Y
expectations,
##s)
Gulf
41
3.1
38
Electric
##a,
healthy
Public
lenders
excludes
City
robust
credits
today,
sells
Reform
##na
participation
Western
Itâ
(and
Administrative
impaired
utilized
Through
cancer
drop
##ta
proceedings
items,
term,
##v
opened
defense
what's
permits
headcount
Slide
Copyright
manufactured
everyone
employment
difficulties
steps
34
FY
interest,
appreciate
exit
underperform
allowed
warranty
##id
##ors
channels
stage
non-
High
Acquisition
Corp.,
industries
FFO
subsidiaries,
released
43
margins,
web
(b)
in-line
year-to-date
52
search
choose
affiliates,
expiration
slight
##up
65
##nce
[Operator
introduce
considering
immediately
Performance
leadership
60%
3.3
maintains
strategy,
producing
16%
Sell
0.4
impose
regulators
budget
##based
##.5
##12
rig
##out
recipient
events,
plan,
whom
Second
export
agent
voting
court
perhaps
extremely
expecting
summarizes
ASU
##,"
advances
integrate
write
Tom
Division
reliable,
respond
Technologies
Estimates
operators
process,
AG,
qualify
Association
offshore
ordinary
legacy
0.1
mitigate
physical
##at
sensitive
percent,
##Z
Ltd.,
##”)
superior
Ltd.
diversified
Oppenheimer
##ance
acquiring
gaming
26,
carriers
##ss
offsetting
giving
47
penalties
retention
met
Critical
foreseeable
##(
Outstanding
My
##10
service,
2Q
##one
tangible
Loss
3Q
with,
effectiveness
calculation
80%
vehicles
##age
reputation
regular
3.2
fewer
comfortable
sum
enforcement
cut
securities/instruments
selling,
##Ã
##sh
leader
(a
First,
radio
##d,
civil
Property
comps
disruption
17%
lesser
marketable
S.
##il
##as
estimate,
waste
shipping
fundamentals
Perform
hospital
Firm
Future
say,
reasons
##1,
trademarks
Southern
extension
duration
retained
##ial
bookings
ASC
remind
indicative
Protection
Sheet
bear
focusing
3.4
prohibited
TV
Thomas
Delaware
29
He
Treasury
Months
Drug
18%
OEM
rigs
upgrade
GM
enrollment
excited
permit
Compared
Or
therapy
probable
quarters,
Goodwill
expertise
receipt
Taiwan
Underweight
aspects
delivering
matter
mature
helped
expensive
thereby
Code
earn
thousand
Litigation
construed
##ard
##ling
thanks
room
0.7
homes
demand,
##ter
went
25,
(M
Strong
Effective
ad
which,
Approximately
never
Officer,
GE
Related
U
Director
E
accompanying
Ltd
##it
follows:
exposed
Specialty
branded
margin,
Union
3.6
Partners
11,
Chris
CapEx
assumptions,
then,
G
##to
dates
parent
valued
control,
cloud
London
million)
severance
Cap
Royal
n
expire
deterioration
Abbott
Jeff
supporting
Middle
from,
mentioned,
0.6
Network
payroll
X
marketing,
charge-offs
safe
annually
33
grade
Sun
elements
Florida
Foreign
fact,
to:
Merrill
##,000,
bond
1Q
R
initiated
charges,
indirectly
usage
communication
comparisons
Production
slowdown
herein,
follow-up
FCF
system,
entry
digit
51
express
4,
obligations,
12,
AG
restaurants
directed
##ated
synergies
credit,
##ff
royalties
spot
including:
consistently
Recent
Security
involving
sustained
prepayment
##.2
Equipment
Regulation
1996,
1A.
##ma
covering
guarantees
freight
Citigroup
overhead
supported
translation
season
ET
stay
subsidiary,
5,
(up
##mm
efficacy
Portfolio
point,
originally
y/y
Co
China,
Agreement,
Provision
Both
efficiencies
arrangement
Germany
##n,
merchant
currencies
repair
audit
##ie
tenant
employed
biggest
actively
pass
prospective
borrower
rule
physicians
quality,
on,
Reported
modestly
moderate
V
##ring
electricity
Overall,
##0,
Branch
ago,
investor's
Kevin
attributed
reconciliation
mining
Andrew
past,
Following
competing
moved
implementing
CA
(C
Committee
platforms
##ning
not,
peers
remediation
linked
telephone
milestone
distributor
##.3
groups
AM
##-to-
trends,
bankruptcy
Condensed
##).
periods,
3.8
tests
innovative
payments,
Convertible
##ee
(excluding
About
##*
More
Brazil
Peter
chemical
properties,
model,
acceleration
stockholder
pricing,
consecutive
possibility
goes
named
representative
Canaccord
ranging
TO
priced
administration
packaging
bringing
liquid
Central
director
Thatâ
##.1
vendor
Ratio
T
(loss)
600
##J
materials,
Let
4.5
14,
additions
Turning
treat
line,
shares,
FCC
##ON
double-digit
directors,
designated
##.6
tough
##.8
becoming
operator
letter
Compensation
subscriber
terminated
##.4
internally
Now,
allowances
Web
initially
mid-
purposes,
exceeds
hazardous
:
individually
executed
##.7
newly
item
conflicts
treated
wholly
R.
Healthcare
##ver
denominated
macro
53
challenge
##ur
##ke
Environmental
schedule
sustainable
indirectly,
forecasted
Direct
##.9
modified
marketplace
course,
middle
preclinical
warrants
hope
label
structured
70%
Unidentified
severe
##ol
ventures
Services,
3.7
Software
FX
location
role
long-lived
FHLB
District
##ft
##go
Unless
(4)
Intel
installed
lowering
perspective
Index
agents
Quantitative
followed
restrict
innovation
coupled
preceding
creating
##gen
indicates
marketed
independently
problem
reviews
Dan
Could
5.0
lowered
4.0
Clients
countries,
Instruments
(P
cost,
attempt
win
subscribers
13,
firms
this,
Rule
influence
delayed
IV
prime
closer
advisor
Should
after-tax
composition
increase,
compare
##way
Overweight
communities
58
head
Model
finished
unchanged
accumulated
discretionary
Re
specialized
broker
usually
utilizing
Bob
interest-bearing
carrier
Johnson
hospitals
clients,
##cy
##la
divided
entering
90%
case,
difficulty
others,
anticipates
##ze
claims,
holder
rights,
Restructuring
submitted
interested
capitalization
tons
assist
HP
nice
3.9
##r,
unconsolidated
secondary
##2,
downturn
##ue
characteristics
resource
infringement
personnel,
Higher
##ized
production,
L.
ROE
suggest
federal,
truck
steady
instrument
showed
participating
##S,
membership
guidelines
segments,
adequacy
activity,
technologies,
expected,
suggests
optimistic
##ey
collect
breach
Water
Upon
valuations
implies
latest
telecommunications
##per
Failure
mutual
ever
lives
Those
Last
Revolving
reliance
soft
floor
satellite
P.
origination
multiples
cyclical
##50
Hi,
enables
definitions
units,
##ure
imposed
##no
enacted
61
serves
portfolios
17,
insurance,
targeting
speak
Center
borrowers
population
framework
Green
4.1
normalized
impacting
therapeutic
##ding
contributing
(B
showing
##es,
nuclear
foot
regularly
solar
up,
minus
candidate
heavily
candidates,
full-year
Boston
CMS
##der
circulation
68
projects,
carefully
game
##year
Tim
words
funds,
blood
Ford
Thus,
Number
securitization
declared
marks
MS
120
serving
wholly-owned
##ns
programming
(“
Inc,
3)
disruptions
sharing
broadband
59
follows
copy
16,
below,
G&A
commercially
discounts
metal
flow,
have,
19%
0.02
tenants
changes,
Funds
##land
##ex
adequately
##he
beat
minority
K
Well
flows,
24,
22%
Investing
N
investment,
longer-term
liquidity,
(E
##and
Qualitative
##ER
Partnership
formed
shipment
request.
change,
evaluated
resources,
##x,
NYSE
Level
concern
bearing
Agency
ship
allowing
policies,
benefits,
itself
4.3
approximate
PT
##com
mine
three-month
et
likelihood
costly
oral
entertainment
perspective,
##4,
##ability
E.
bulk
guess,
occurrence
##CO
Management's
calculate
22,
relation
demonstrated
(N
passed
85
York,
arise
holds
21%
voice
##IC
undertake
Question-and-Answer
dose
Book
M&A
0.01
managers
exactly
Policies
Time
Long
Red
military
department
share-based
##ian
Buy,
Food
##related
priority
consumption
ground
example
didn't
periodically
AT&T
officers,
applications,
##ization
Session
[ph]
CFA
demonstrate
refinancing
certification
chart
fiber
##ide
gold
##pe
54
EPA
##bps
practice
Natural
establishing
refinance
Dividends
D.
##AL
Moody's
student
soon
split
H
select
No,
##ad
Steven
Control
Includes
capture
Express
design,
quantitative
adopt
4.2
Historically,
noninterest
Non-
Purchase
Barney
engine
##ir
ready
capability
Microsoft
favor
21,
Order
same-store
Hi
Fund
subsequently
professionals
Ben
typical
mortgages
conclude
estimates.
social
##6,
controlled
unexpected
concentration
1995,
adjusting
seasonality
20,
regardless
heavy
saying
award
amendments
available,
exception
pool
NA
##ating
Summary
El
push
Research,
excluded
CE
grown
67
off-balance
75%
Chinese
investigation
level,
##11
experience,
Activities
University
excellent
##am
disposition
##7,
owners
downside
prepaid
UBS
Inventory
Its
intent
18,
##day
constitutes
##ier
hotels
72
(I
4.4
encouraged
deployment
proved
or,
##ley
##):
aggressively
23,
##hi
team's)
sale,
five-year
base,
happy
sustain
acts
indications
analysis,
(e.g.,
corporation
initiatives,
Domestic
absence
##ld
teams
annuity
suffer
non-interest
physician
##ker
todayâ
falls
Program
reportable
bigger
ModelWare
Daniel
competitors,
signs
Sprint
left
CD
compensation,
guide
consequences
converted
functions
restated
According
Internal
utilities
avoid
emissions
announcement
Raymond
##IS
##20
owner
opportunities,
64
points,
##ster
instead
impair
56
year-ago
summer
amounted
downward
outcomes
facilitate
##ed,
helps
warrant
Included
goals
Agee
perceived
mix,
##A,
sensitivity
##ear
closure
B.
obviously,
##ite
(S
holiday
(i.e.,
outsourcing
1994
areas,
Professional
##9,
4.6
adds
##os
highlights
here,
##da
electronics
dilution
products;
one,
(O
##5,
accrual
eliminate
spreads
concludes
earlier,
Wireless
embedded
tables
gave
household
municipal
elect
broadcast
piece
##fe
[indiscernible]
ones
Verizon
parties,
risk-adjusted
wind
influenced
2019,
##on,
true
Merger
63
billing
2.
19,
Lower
check
End
(T
non
Got
convert
hear
borrow
incentives
legislative
##ut
accept
Auto
elected
(F
Joe
title
everything
De
'
##cal
authorization
definition
##ber
cents
shipped
##3,
transferred
P
quantities
copper
Relations
(H
Available
staffing
lowest
needs,
##ys
thereâ
STARS
PM
warehouse
disclose
visit
71
Non-GAAP
##t,
expenditure
server
62
shopping
apparel
dedicated
4.8
57
achievement
top-line
amendment
YoY
non-recurring
equities
(such
supplemental
Wall
##ler
Potential
high-
trademark
##RA
accounts,
very,
initiative
context
Dodd-Frank
preparing
frequently
stations
customary
documents
·.
S.A.
pick
(iv)
strengthening
##er,
Supply
territory
Continued
##-in
Japanese
permanent
Line
66
deposits,
banking,
maximize
simply
Eric
FERC
modeling
law,
Blair
manufacturing,
varying
##bn
installation
forms
volume,
bid
names
six-month
out,
##net
unpaid
considers
carried
MSCI
slowing
Top
investors,
immediate
reiterate
##lo
FAS
Two
seem
criminal
risk-based
putting
placement
cautious
Korea
willing
length
Japan,
Yeah,
theyâ
23%
supplement
headquarters
Head
Specifically,
Entertainment
drove
stages
5.5
Next
frequency
residual
##ell
Northern
figure
casualty
partly
EU
selection
day,
##back
##les
proportion
reports,
transaction,
positively
Estate
Pursuant
Pharmaceuticals
Be
recipients
##va
##use
concerned
extent,
highlight
##AR
diagnostic
Cisco
George
##her
impairments
0.03
evolving
renew
St.
diverse
unanticipated
favorably
assessing
##8,
Charles
updates
sometimes
promote
reform
inclusion
competitor
firm's
analytical
##/A
central
contents
(D
Dividend
Customer
months..
borrowed
##o,
##ny
SunTrust
options,
haven't
Bio
##ls
Republic
discovery
Inc..
Competition
capacity,
Deposit
possibly
82
River
version
accretive
minimize
salaries
pre-
buyback
Principal
Gary
causing
decide
Acquisitions
bill
knowledge
right,
inconsistent
heard
800
conducting
auction
##-3
can't
happen
Utility
Construction
rules,
0
Volume
350
License
Expected
##ory
interesting
concluded
uncertainties,
##sa
Greg
swaps
sheet,
element
separately
45%
fit
taxation
tied
partnerships
education
MM
assessments
standards,
NDA
legal,
ManagementÂ
Americas
covers
SE
helping
distribution,
NY
La
10-K,
OPERATIONS
Ed
engagement
trading,
distinct
mass
stability
6.5
interpretation
promotion
44.
highlighted
pursuing
beverage
description
prescription
MA
Ne
Moving
Flows
pre
##io
USA
##-A
##ner
break
continually
easy
EBITDA,
commenced
estimating
nothing
Ken
recall
4.9
(A
roll
profitability,
competition,
24%
forecasting
700
monetary
strengthen
0.05
feature
Apple
EPS,
drill
##ger
internet
125
old
##TE
contracted
par
Matthew
approval,
live
4.7
barrels
MARKET
financing,
station
independent,
##C,
130
limiting
negotiated
AL
software,
instruments,
##30
##zation
only,
import
California,
ton
Best
(G
Joseph
car
##tt
indicators
generates
accident
workforce
accretion
else
definitely
##US
J
Generally,
##do
##SA
reverse
buyers
prohibits
players
actuarial
7.5
unauthorized
age
Cable
Mexico,
Digital
poor
Go
CP
Analysts
Corp
belief
##8.
executing
Euro
NR
5.1
DCF
Except
film
acres
broker-dealer
##mer
##ha
solutions,
mark
110
Consequently,
Six
Matt
phone
CC
##vo
worse
story
inventory,
works
II,
companyâ
##ful
display
qualitative
efforts,
Dollar
beneficial
acting
doesn't
##6.
5.3
hedges
##ally
analog
neither
officer
##-up
metric
Stephen
(R
(Operator
originated
Eastern
Impairment
(USA)
input
##field
ourselves
applying
networking
arrangements,
##AS
preliminary
nonperforming
leveraging
yes,
agree
estimates..
Fixed
69
##ions
##ms
##rt
##ware
Local
ratio,
Working
non-investment
magnitude
##tive
Reports
speed
continuous
sole
nine-month
turnaround
HD
Micro
##3.
46.
prohibit
consult
commentary
##ping
setting
collected
opinion,
hereby
capitalize
Suisse's
partners,
optical
##RE
Proceeds
falling
Increased
##q
everybody
renewed
FIS
mortgage-backed
L
range,
##dy
micro
decided
unlikely
dry
upper
Zealand
scientific
hours
patterns
convenience
IC
76
readily
r
revisions
##lin
vessels
minimal
providers,
NE
Manufacturing
worked
##CE
Bear
inputs
reminder,
sub
IR
receives
##OR
Overweight,
Dr.
Le
looked
characterized
obligated
Positive
Holding
are,
##ded
terminal
lawsuits
AS
litigation,
fast
privacy
experiencing
hiring
use,
advised
zero
expires
Institutional
hand,
##ations
records
footprint
futures
reserves,
shared
sourced
Administration
BUY
direction
handling
Minority
facts
Sea
gets
computing
students
increases,
##led
manufactures
(US
may,
##7.
let's
controlling
##zed
Once
Mo
NC
incorporate
strong,
deliveries
##ki
p
enhancements
33%
remarks
emphasis
rolling
Unit
repaid
##ative
surplus
##M,
volumes,
AT
##MA
capex
opposed
Australia,
Ltd,
package
banks,
trials,
##less
heart
##ING
##ot
integrating
mm
divestiture
LT
reversal
reliability
recommend
electrical
lines,
Short-Term
dividends,
liable
security,
tracking
gas,
##rd
print
medium
cards
Martin
Currently,
advantages
Note:
derive
prior-year
Losses
180
median
representations
facing
issuing
dealers
e-commerce
bases
Don
grants
stop
thoughts
cost-effective
analyze
1.
##end
partial
Store
rating,
Washington
inherently
entirely
whatâ
catastrophe
refund
(c)
addresses
##TA
BB&T
##4.
##que
produces
compelling
transport
Where
##ice
History
5.4
Dave
block
tool
exceeding
formal
King
5.6
area,
counterparties
portions
match
code
##13
unaudited
renewable
consolidate
custom
Among
begun
non-performing
collaborative
Rob
material,
impressive
issues,
million),
None
Malaysia
77
5.2
gentlemen,
interest-earning
skilled
Basel
Again,
48.
producers
appropriate,
unusual
buy,
repayments
PART
78
collaborators
memory
correct
tender
26%
Clinical
Networks
F
assign
notes,
##ther
Coast
complexity
properly
Citi
comparing
easier
relief
FIN
winter
way,
Period
##ase
(L
Margins
##bility
87
awarded
Day
10.0
cutting
gap
91
alternatives
weight
indicator
Incorporated
doubtful
##ix
##point
group,
27%
indemnification
in-
none
sold,
liquidation
–
45.
##40
surrounding
load
cycles
floating
Congress
MW
(vs.
macroeconomic
state,
Jason
84
88
modifications
loss,
automobile
vertical
Warner
73
serious
separation
c
games
Guidance
gone
mail
JP
##tor
huge
Land
spectrum
spending,
Illinois
dynamic
Holdings,
Su
upcoming
extra
strategies,
95
millions,
three-year
considerable
concentrated
Materials
revise
settled
##bit
unknown
exposures
##SE
1,0
rail
Ro
financed
Frank
##the
proceed
proven
dynamics
prevailing
IBM
figures
otherwise,
month,
regards
##s;
recoveries
##wood
Manager
occur,
proposals
##%)
joined
logistics
Dominion
branches
economies
##IT
retaining
keeping
release,
Description
lender
accelerating
province
##za
upfront
offerings,
5.8
enforce
Forward-looking
suppliers,
I've
Electronic
Client
##VI
Sale
indebtedness,
AC
Rated
offering,
vote
86
laboratory
Li
6.0
Mobile
asked
removed
##200
caution
DC
capable
database
Oracle
1,1
28%
forced
customer,
IN
intangibles
##PA
certifies
##2)
depository
sign
treasury
##king
severity
##ern
complement
equity,
Systems,
touch
interruption
starts
manager
liability,
modify
exist
charter
aftermarket
83
TA
certificates
amount,
1A
Pension
averaged
Intangible
host
Beginning
shelf
Blue
0.04
agencies,
gathering
se
Nine
movement
##ul
CFO
wins
pharmacy
compound
51.
optimize
IB
occurring
##ti
Contractual
Range
Project
32%
42.
Basic
collateralized
Amended
functionality
question-and-answer
deep
bonus
releases
boost
scenario
bio
structure,
surface
##by
authorised
satisfaction
LP
lots
projection
guided
doubt
available-for-sale
project,
maturing
JV
##time
Ohio
structural
encourage
election
assessed
widely
We'll
reasons,
Bureau
Use
whereby
##cation
##ical
pain
##off
fire
OP
##/share
actions,
Boeing
##1.
PS
settlements
contractors
Lease
divert
1,000
Prices
platform,
Another
H.
digits
Car
Bloomberg
##red
Demand
realization
##und
refining
tremendous
rents
Buckingham
NASD
##ser
demands
cease
(with
expose
CT
34%
gaining
79
EC
older
##s.
consultants
Monetary
##ps
finding
collections
box
normally
noncontrolling
meaningfully
##Co
functional
News
rebound
flexible
Jeffrey
NOI
##au
##sing
miles
define
Dell
##75
you'll
committee
replaced
##ers,
sources,
##mo
50.
economy,
Worldwide
desktop
creation
aerospace
##99
returned
Quality
supports
communicated
##15
Craig
Second,
appeal
##ging
##ya
methodologies
IRS
##NG
sounds
##",
disciplined
92
volatility,
Genuity
Corporation's
climate
procurement
ranges
dealing
Impact
down,
end,
negotiations
tax,
outlined
Education
##ied
Overall
##ize
quoted
fashion
recovered
##port
completely
##ence
Discontinued
drives
52.
insurers
##ular
correspond
##NA
Virginia
Low
session
biotechnology
reorganization
turning
##mi
idea
Long-term
co
decision..
RMB
submit
hurt
##-S
imaging
agricultural
##ments
43.
##09
##ea
certificate
Have
occurs
(3
Safety
##ale
retailer
RISK
47.
Notes,
disclosures,
Contract
Restricted
institutions,
Advisory
##board
assistance
##tar
##so
PD
##)..
payout
##gh
W
deploy
Noninterest
Long-Term
eliminated
relations
SO
inter
49.
amortization,
##ome
##ou
variations
Ho
Yield
Chairman,
positioning
curve
cross
##ks
accruals
##ka
economic,
Asia,
EMC
upgrades
Refer
6.3
completing
stress
fill
EMEA
##ES
elimination
Regarding
neutral
##DA
(price
##ST
confidential
reaching
array
74
Google
Valley
reduces
94
##ct
31%
securing
contract,
chance
Mar
##ile
handle
6.1
plc
Steel
extinguishment
##ni
Van
presently
5.7
reviewing
##-2
##CA
Banks
0%
issuances
SA
defend
Wachovia
clean
Sachs
approve
disrupt
calling
##9.
##-1
draw
Bancorp
ideas
7.0
leads
awareness
focuses
Then
war
workers
(from
##(s)
Large
Wealth
however
headwinds
197
techniques
sophisticated
Jack
##/E
##pro
Special
examination
Tri
##sis
clearing
Employee
faces
140
Barclays
thousands):
contrary
##ds
ST
high-end
(5
errors
##35
economics
##han
Windows
Selling
high-quality
classes
remember
interpretations
debit
Channel
proxy
Defense
complementary
heading
issue,
thereof
Automotive
movements
advertising,
currency,
Payment
percentages
##rs,
redeem
happening
wafer
MD
sections
intense
bo
##to-
write-off
##den
100,000
informational
maker
##om
450
assembly
JPMSI
vesting
fines
asbestos
Date
International,
tissue
practices,
allocate
##EL
##Re
governments
patents,
Transaction
Wyeth
panel
turnover
devices,
identifying
policy,
ARPU
recoverable
diversification
160
postretirement
mention
##ca
mind
PV
81
Items
Bank's
Ko
10-Q,
amended,
unused
Christopher
2.5%
CL
collective
cuts
99
hedged
Patrick
viewed
subjective
chief
Scientific
appropriately
curious
comparative
DISCLOSURES
happened
0.10
universe,
Staff
SI
enabling
Pipeline
Transportation
##16
similarly
ahead,
IPO
al
Up
classification
##are
5.9
Du
recession
(dollars
Ra
RA
prudent
Pennsylvania
##l,
construction,
CF
AIG
leases,
Generation
readers
53.
##PS
before,
Pricing
Rick
Advertising
equally
lien
competes
bar
repeat
Gain
milestones
Managementâ
multi-
tested
desire
##tal
##xa
(4
shorter
meetings
collectively
IM
exchanges
midpoint
Legal
T.
ex
covenant
##VE
well-
strongest
statistical
36%
##ght
##ow
Circuit
simple
AB
89
efficiently
Midwest
link
measures,
Compliance
acreage
##TI
concept
exempt
broadly
British
Pharmaceutical
bought
dated
compression
##IN
##ons
Relative
decline,
##AC
launches
Further
frame
PO
historic
Mae
tailored
38%
##ast
##gan
Saudi
virtually
Branch,
8.0
Benefits
54.
Member
Frankfurt
recording
Update
##des
governance
discrete
trailing
##o-
counterparty
Small
##hip
diesel
millions
sell,
walk
world,
brands,
voluntary
shortfall
traction
na
negotiate
USD
decreasing
clearance
spring
Stores
Man
Properties
##ga
##OS
List
##17
containing
AR
questions,
suspended
arrive
train
writing
Pfizer
1994,
##ron
Africa
satisfied
drag
Title
Wal-Mart
residents
outflows
exists
##ries
restrictive
post-
10-K.
marine
Allowance
violation
mill
suspension
Will
Fourth
##op
Asian
outlook,
modification
stake
Consensus
statutes
foregoing
buildings
##li
conventional
MC
Argus
-1
##ven
Park
##pt
accounting,
quantify
dilutive
establishes
Inventories
##31
##ME
##ess
upward
##ish
##60
moves
picture
Robinson
##05
sourcing
##25
representatives
violations
conform
chemicals
stringent
Puerto
expensed
identifiable
##-10
narrow
Pan
formula
merchandising
eventually
unrecognized
sectors
hire
barrel
##RT
Overview
tight
6.2
##con
inspection
ON
Star
leveraged
##rated
98
enhancing
Fee
##04
6.6
PNC
completeness
##14
Black
Disney
6.4
Al
Bell
##01
8.5
Sub
##LE
latter
##@
dramatically
MANAGEMENT'S
Pharma
Super
differing
Comcast
GS
MI
##NT
##‑
190
processes,
Policy
57.
settle
shifts
living
29%
##”),
cells
low-
insufficient
Advanced
##19
churn
##ew
intention
culture
(net
FSA
determines
body
”
themselves
(%)
##tan
times,
controls,
creates
bp
OUR
CB
AUM
advisors
##wide
corn
PE
space,
##ight
path
foundation
1.5%
##ten
stand
Lee
Currency
leave
vessel
TE
TR
CI
y
pull
Block
manufacturers,
simultaneously
##ba
thesis
Card
value-added
hearing
Eagle
author
Merck
employ
probability
Building
##sion
customers'
65%
segments:
fresh
exclusivity
places
headquartered
sa
Plant
##ri
##é
expansion,
Case
Prime
printed
injury
announce
equivalents,
debentures
encouraging
OEMs
NI
6.8
Fitch
infrastructure,
900
stream
brief
producer
37%
absorb
petroleum
re-
stocks,
tobacco
behavior
headwind
gained
Units
County
Alex
qualifying
Facility,
DS
survey
lag
la
CO
variables
Laboratories
AN
56.
didnâ
Mexican
E&P
president
4)
financial,
##CC
refers
do,
buyer
exciting
Jersey
calculating
G.
JPMSAL
##22
organized
93
pound
##ht
(See
Access
Great
##ities
##ying
Associates,
Pa
Similarly,
Personal
##ped
terrorist
laser
interruptions
##-4
surgical
Thomson
checks
Option
##m,
ED
"wholesale
initiate
CAPITAL
Outlook
Base
;
three-
##lly
nonaccrual
ASP
recommendations,
Aerospace
LNG
associates
Review
prepare
borrowings,
acute
fulfill
road
removal
Dow
fraud
surprised
somewhere
payors
x
vast
##ore
Ad
##B,
##ort
Pre
Reuters
##ned
centers,
dissemination
##pa
Las
(5)
Residential
receivable,
summarized
quarter's
Fuel
Lo
importance
divisions
##80
handset
##0,000
failed
Doug
##lan
switching
optimization
threshold
Forward-Looking
won't
(down
##&
ABOUT
Columbia
##hu
discretion
##ock
Lea
note,
valuable
N.A.,
proper
automated
develop,
ore
BE
affiliate(s)
Obviously,
##5.
42%
balanced
Z
96
components,
aluminum
AI
intercompany
OR
White
Sa
network,
depreciation,
finally
prepayments
investigations
Going
ES
Carolina
content,
amend
rollout
##logy
##quarter
Ke
wouldn't
target,
foreclosure
world's
Chemicals
penalties,
Indonesia
##21
##DE
##ai
failures
Op
En
Da
Count
FINRA
requested
##over
chip
Ladies
##berg
55%
respectively
globally
##ving
varies
Wi
Gold
acted
plays
##su
yield)
we,
strongly
predominantly
Texas,
Y
##03
inside
##TM
cancellation
fine
exemption
RS
about,
inflows
shareholders,
analyses
switch
Secured
##wer
Volatility
oil,
AMD
mixed
email
Region
mandatory
EV/EBITDA
output
infringe
Subject
##.,
sports
compounds
smart
58.
lawsuit
documentation
##/0
##rate
orders,
##70
##ral
Ta
7.7
enabled
fails
##ward
days,
share)
addressing
1993
SP
##ist
Joint
salary
##market
encounter
##EC
##be
##un
##ET
suite
withdrawal
straight-line
TI
##tu
Strategic
impact,
remarks,
warranties
patients,
transformation
electronically
explain
##ford
Kingdom,
proposal
##mic
Payable
CR
insurer
sector,
utilizes
ratings,
machine
multi
##ED
pattern
Q4,
non-core
France
websites
iPhone
officer,
PA
115
Equities
Fi
Old
sub-
97
commodities
capabilities,
situations
carbon
overseas
##ime
##AN
Continuing
signal
dis
entities,
55.
Historical
turns
Q/Q
##zing
##C's
returns,
Gen
redistributed
wishing
Wholesale
##I,
missed
CAGR
wage
distance
licensees
Electronics
##SI
Utilities
business;
7.1
subs
wait
Transactions
BP
MO
beneficiary
Jay
(e
start-up
affects
weakening
Bay
marked
BUSINESS
##our
surprise
Point
##ep
clarify
Safe
Clean
sound
##500
Sarbanes-Oxley
Georgia
##VA
resolve
variability
support,
EN
copyright
believe,
Gains
Jonathan
6.7
##vis
##18
Gra
##RI
establishment
applies
203
##ium
##bs
submission
OTC
##side
Chart
drilled
##tz
##kin
##IP
1,2
SG
manner,
advertisers
been,
transfers
##ko
##sta
Mentioned
##23
obsolete
inception
will,
(9
telecom
Basin
declare
1,3
feedback
##ric
da
Prudential
Ha
##08
##ana
##65
Ryan
defer
Not-Rated
CM
transmitted
Retirement
##41
Brands
##art
Fees
master
LIFO
easily
deficit
##tra
essential
website,
ho
coverage,
##IA
counter
##.com,
85%
alone
7.3
QUALITATIVE
as,
Big
matters,
requests
reclassified
holdings
region,
chronic
##.)
extraordinary
##ho
million;
covenants,
##9,000
62.
EUR
Obligations
sellers
##6,000
death
team,
##LI
Bar
www.
Name
motion
lo
testing,
Street,
SN
commence
unemployment
SC
lift
##ties
##ple
oversight
Applied
stent
##ip
catalyst
Community
6.9
l
beneficially
discipline
dropped
categories,
OTHER
1-
##24
##ru
deem
moment
BC
communications,
There's
seasonally
F.
##ib
PP
Storage
thereto
migration
automatically
player
Brazil,
•the
##rk
newer
contamination
carryforwards
IS
Motorola
##ene
59.
provided,
multi-year
merits
announcements
alleged
breadth
novel
securities-related
Stearns
##po
##ci
##ick
##oo
confidentiality
(we
redeemed
##mber
resolved
write-down
ease
##gs
originations
61.
NM
##val
##che
printing
clients"
Semiconductor
gains,
Sterne,
fix
VP
services;
##di
##8,000
talent
format
Paper
vision
##RS
unforeseen
##-200
processed
leaving
alter
other-than-temporary
disseminated
distributes
Edward
listing
of:
ends
privately
##BA
Rich
##fa
0.06
Computer
limitation
##od
Ma
ROIC
Combined
manages
una
perception
##5,000
ladies
Trans
Q1,
10,000
AP
Del
priorities
franchisees
##ings
relationships,
assurances
Assuming
BR
Short
bargaining
DA
##CT
tier
##lla
Sta
Patent
Ag
Facilities
ATM
QUANTITATIVE
tends
39%
##pre
(for
##ab
turn,
PCS
##ATION
align
##02
euro
##rm
animal
states,
th
Organic
Comparison
##As
Harbor
EEA
memorandum
constraints
mark-to-market
Am
gene
Rev
Negative
##-T
Support
vs
commonly
Telecom
choice
MBS
##og
##ane
41%
Jan
Off-Balance
definitive
TS
##/re
##4,000
designs
alliance
Inter
unrelated
valuation,
OS
##1,000
enhancement
loan,
Marine
Visa
apartment
Foods
Several
NASDAQ
remove
slowed
temporarily
elevated
Payments
Ber
remote
220
##\uLINES]
##lic
##ect
ticket
Sam
structures
FI
##yn
##cing
Fannie
discontinue
##ney
NGL
750
k
AA
Lake
reiterated
stuff
ID
Wood
HOLD
(W
Amendment
explanation
##90
glass
Residents:
7.2
##ain
Estimated
7.8
learning
annum
Certification
WE
Hill
renewals
miss
Maybe
(12
Tele
estate,
3.5%
##06
reinvestment
arm
imposition
organizational
Ri
connected
audio
recruit
Co.'s
anticipation
more,
Exploration
157
managementÂ
havenâ
##bi
brand,
deployed
##45
stabilize
substitute
##7,000
##redit
disputes
Cor
scenarios
Using
Hey,
whatever
Forest
Ku
1.00
un
co-
operations;
feed
(indiscernible)
exercised
##si
##AM
shifting
##/S
wireline
##98
Master
importantly,
Chemical
Nextel
MD&A
aid
##cap
Corporations
##2,000
##stic
##-of-
7.6
Con
Like
Q2,
confirm
##low
##ina
Jo
publish
locations,
sales)
permission
"s
challenged
##/d
Same
##wa
farm
Med
apparent
evaluates
8.2
(d)
7.4
ethanol
lock
##TC
storage,
Gu
identification
##3,000
charge,
##lu
Industries
compensate
hybrid
forecast,
Receivable
Me
Borrowings
ruling
meets
participant
category,
Regional
("S
Law
63.
Amgen
net,
depressed
write-downs
Di
wealth
connect
(Europe)
##\u
gasoline
wood
benefiting
matures
begins
circuit
RE
Brad
4.5%
accessories
footwear
Below
##38
##O)
Area
expressions
non-accrual
finally,
N.
SS
Cross
PG
wire
continuation
prefer
Philip
recruiting
Very
##sive
Lu
breaches
##ves
Post
MP
image
exclusively
Williams
##ali
##let
GDP
Subsequent
straight
Major
year-over-year,
##44
##j
absolutely
backed
Na
Pi
Edison
safety,
##NE
##SS
##res
depth
12-
Za
subjects
sequentially,
extending
FOR
##izing
##zi
notional
liquids
internationally
##/M
43%
introductions
airline
Ron
vulnerable
single-digit
Bi
##yl
managementâ
mis
?.
Germany,
prolonged
regulate
maintenance,
breakdown
##ap
aforementioned
revision
sharp
designation
Ba
one-
Recipients
Leach,
dramatic
combinations
Process
But,
Infrastructure
Q3,
disappointing
watch
AE
##...
NAV
44%
Amounts
##vir
HR
(approximately
Benefit
variance
8.3
whatsoever
230
##nk
##/C
10%,
q/q
replay
##ak
##s'
incorporation
buybacks
##nes
drawn
60.
##62
##rse
erosion
could,
##tone
Pat
9.5
Mil
170
CV
months;
##cer
firm,
##07
audits
KeyBanc
##sen
##28
greatest
contractor
proceeding
GAAP,
##36
administered
engines
Claims
Institute
DP
##-6
week,
Dubai
leaders
continuously
(212)
school
spin-off
BB
commitments,
##-E
Fort
we'd
en
adviser
#
Recommended
expired
extensions
##OL
##/a
NS
er
Par
COMPANY
Anthony
formulation
Jon
imply
delinquency
##-5
connectivity
reset
domain
casino
issued,
Mid
one-year
AV
owing
ancillary
publishing
music
she
RI
distributors,
suspect
overview
detect
64.
Commitments
##ert
##46
Charges
round
whereas
Si
north
photo
##ame
##0.
shape
3M
(inaudible)
stockholders,
RF
##85
hopefully
##27
##ja
HC
disconnect
Human
RO
##MI
##med
##A)
Capital,
outstanding,
Larry
1,4
Cooper
##EN
booked
total,
##P,
introducing
costs;
##nu
menu
defaults
Liberty
measuring
felt
##C)
eBay
references
secular
Southeast
complying
Carl
used,
Analysts'
differentiated
Rental
##86
cellular
Cal
##month
2020
event,
addressed
insight
Application
Jones
mechanism
Describes
49%
RevPAR
##ville
Nevada
Was
impede
procedure
##39
##LA
5%,
in-house
billings
ri
proposition
##ery
Wa
generation,
Lehman
Importantly,
install
##ust
qualification
Seoul
Todd
CRM
full-time
involvement
Duke
Partially
automation
engaging
minutes
##ION
average,
formation
enjoy
warranty,
##har
EITF
##32
softness
vaccine
##73
FY11
##ris
regulation,
Individual
Mississippi
##-C
dispositions
##?.
Topic
##work
size,
preferences
##,1
##tis
Kong:
calculations
prospects,
BI
LI
8.1
cancel
architecture
Wisconsin
##of
##e-
necessary,
ac
Adam
P&L
networks,
furnished
German
##pen
GP
##GE
prop
HIV
##TS
strike
recognizing
Risks:
landscape
organizations,
##water
Baxter
Estimate
throughput
Statements,
damages,
Universe
processing,
66.
##55
##load
9.0
option,
sentiment
susceptible
195
India,
Bo
succeed
##-re
Though
unit,
Depot
##lt
overall,
Represents
competitive,
(New
Commission,
##nic
ER
##LL
resale
Reinsurance
##lor
nursing
Engineering
##RO
##zer
##26
##ky
7.5%
##1)
Managing
campaign
Settlement
threat
SR
first,
VA
Leverage
##rin
##tes
on-
Ja
preference
67.
legislation,
afternoon
Processing
women
standpoint,
##ok
##47
frequent
Sciences
seismic
indicating
Nasdaq
196
standpoint
du
conclusion
CH
po
TC
Parent
Energy,
consequential
attempts
stands
##oli
combine
dispose
Brazilian
versions
whenever
Advisors
prescribed
Main
##The
brings
analysts'
##S)
pi
educational
Equal-weight,
(0.
night
divestitures
8.7
minor
47%
SL
15.0
balances,
selective
asking
aggregate,
preclude
therapies
leasehold
improvements,
underway
noted,
Po
jump
maturity,
devote
Farmer
CN
harbor
secrets
Welcome
substances
merger,
##dia
25.0
dollars,
Options
Smart
##-P
reprinted,
Chicago
reflective
Sterne
##ah
##ora
CEO,
owning
##-off
also,
explore
comprise
FDA,
vo
successful,
contingency
ACCOUNTING
adapt
6-
numbers,
7.9
mission
Opinions
Sha
puts
##cell
0.07
stabilized
12.5
212
Devices
##ica
accordingly,
Miller
240
evaluations
Ru
billed
immaterial
pays
PF
brokers
division,
Managed
Non
##ugh
clients)
referenced
appraisal
Derivative
Registration
contingencies
executives
promotions
##5)
##FE
loyalty
methods,
Se
co-managed
Min
books
(-
##gar
Lilly
("
fulfillment
(7
##we
directionally
Entergy
indenture
Commerce
##tch
shortages
relocation
turned
hereof
approvals,
experiences
##ion,
analysts,
UP
suggested
faced
hot
reason,
charts
iron
She
360
DM
Los
commented
##34
##ang
di
Maryland
receipts
extreme
ar
visits
Multiple
46%
weekly
describe
observed
95%
(collectively
mortality
made,
stand-alone
Expenditures
##ged
ramping
exact
JPMS
##oe
##R,
Medtronic
happens
10-year
afternoon,
redevelopment
Organization
integrity
##FI
market-
(V
48%
emission
returning
Forecast
Employees
Nick
Income,
Integrated
permitting
suggesting
Louisiana
pieces
care,
Pharmaceuticals,
Shale
factory
Nothing
deepwater
trucks
DO
bridge
PRC
Savings
##eo
el
Accrued
175
waiting
treatments
pulp
satisfactory
##88
valid
diversion
protein
contractually
##ming
##ong
Atlantic
footage
silicon
folks
deduction
3.
exclusion
analytics
##ax
##:0
DRAM
Receivables
##CH
inhibitor
undue
Type
3G
?A
68.
Sky
##ins
channels,
front,
Country
0.15
Capitalization
metals
Officer;
pipeline,
mechanical
goodwill,
subscriptions
GA
##33
##95
strategically
gra
fluctuation
letâ
economically
method,
traditionally
145
PRO
comfort
score
injection
passenger
bu
Russia
antibody
clarity
audited
averages
seller
horizon
nature,
Southwest
Uni
notably
limitation,
WA
Florida,
Dec
evidenced
li
(re
horizontal
JPM
unsuccessful
Maintenance
##-O
3D
##cs
##-a
monitors
Repurchase
Increase
LA
2012.
##-owned
Bra
8.6
manufacture,
Te
blended
statistics
##0)
0.08
##lar
LIQUIDITY
10.5
sponsor
canâ
##n-
##NI
number,
franchises
duty
downgrade
##weight
AF
supervision
cycle,
##ye
dental
govern
app
junior
Management,
Har
##37
##tors
MT
translate
1,5
Freddie
Design
yearâ
wish
51%
##SP
1,6
Light
##bank
attacks
Coal
##mn
purchase,
repairs
discharge
##-e
("F
##down
##NS
8.4
mergers
##De
##ncy
two,
barriers
sheets
modules
that:
##DS
differentiate
##tro
Cont
collaborations
##nge
pledged
accrue
suitability
Keith
##well
YOY
niche
##,9
Similar
dependence
refinery
##len
Northeast
causes
Funding
Technical
##ich
##-B
shop
##sm
Technologies,
Agreements
exp
Rank
instance,
deductions
anti-
##nts
##97
##mp
##2-
COGS
attracting
Corning
##old
##term
scrap
sites,
-2
merchants
##91
##SC
pipe
##ult
Nu
##-0
Registered
coffee
Fully
##77
##ute
##D,
##ces
##ati
CBS
65.
##ture
##ement
effected
##MS
self-
10-15%
##oa
And,
inadequate
Today,
pipelines
##xt
projecting
academic
studies,
F200
standing
Fox
—
Men
withholding
appointed
Daily
trans
pertaining
##92
half,
Goods
[Over
##-rated
Premium
CDMA
plastic
Travel
Far
domestically
##-9
Mc
openings
Amazon
ICD
Eli
##ele
EA
accuracy,
compensated
diligence
me,
##zo
Association,
BA
##DI
undiscounted
9.2
jet
500,000
(all
##—
customized
0.5%
Specific
receivables,
Clear
##sed
neuro
Adobe
non-operating
Ki
place,
Venture
Ross
Field
(U
relies
FY12
105
his/her
hyperlinks
restructured
Audit
##ote
reimbursements
markets;
HS
TD
Cellular
Ni
Conflicts
SAP
MB
emerge
budgets
##ual
##63
comparability
reproduced
NP
catalysts
perpetual
fabrication
bullish
adjustments,
##ood
Ti
"a
long-
employer
ME
unamortized
taxing
trial,
DE
sit
commencing
defects
eye
##FA
Ste
##mes
evolve
Nevertheless,
County,
see,
b
Ga
send
##66
##E,
69.
chips
language
##AT
DVD
titles
false
computed
##yo
##84
higher-
inflation,
acquisition-related
Including
Adverse
Mountain
improves
incorporates
##wo
AU
prompt
##ill
burn
are:
Alliance
Cat
Alan
estimation
commit
leverage,
Mutual
##ord
contemplated
(Asia)
Max
sanctions
Open
improvement,
Emerging
oncology
register
allocations
corporations
##CI
dominant
Matters
Subordinated
##96
launching
willingness
segment's
lists
appropriateness
mg
GL
single-
Online
contributor
g
productive
##eb
##share
developers
##ration
8.8
##I's
jurisdictions,
##pri
##xi
101
low-cost
##Pro
3%,
##ise
##k,
Charter
Fa
licenses,
##ig
onto
adjacent
##rti
fields
sponsored
placebo
Conduct
09
losing
Tan
Right
Increases
Douglas
Solar
71.
##ology
contracting
bank,
0.20
Rock
TM
motor
Out
crisis
##ans
325
fluid
Back
##:1
52-week
404
Active
1934,
##,0
universe.]
stabilization
##cor
packages
##ree
FE
incurring
FSP
##29
Phil
secret
pure
##ire
Consumers
Lastly,
(RL
Petroleum
vice
attrition
##star
Ms.
Days
ra
children
##ran
review,
RC
Does
##s:
pickup
Every
hosting
caption
Attractive
crop
delinquent
##bp
associate
##fer
##s/
hoping
Reuters,
##TV
instances,
trough
1993,
pools
defending
Ir
CVS
##ik
Ab
certainty
January,
intermediate
thousands
expiring
##fi
##tre
ratably
industries,
reimbursed
diseases
Plus
fo
50.0
Janney
attributes
Participating
anti
##L,
furniture
accommodate
gift
##49
fluctuations,
listen-only
##ction
conditions;
N.A.
pounds
uptick
##rl
##-F
sought
Baker
strip
##MC
procedures,
FS
rank
XL
"A
US,
preserve
customers;
study,
550
4%,
##ud
##52
immune
implied,
sharply
Tony
prevention
rolled
EP
##gent
210
Washington,
Sal
Ar
##bu
##53
##on-
machines
Article
SU
Arabia
Restated
vacation
disaster
bidding
benchmark,
rooms
bone
RP
##T,
Kansas
(primarily
?We
Hurricane
Singapore,
discounting
deter
Favorable
Dar
##IB
##ham
continue,
72.
Pri
rich
penalty
Bermuda
##ants
##S.
##54
K.
required,
?The
##-out
Q&A
Gar
##ject
fixed-rate
helpful
Partners,
##FS
Marc
GT
escrow
for:
brokered
Contracts
reputation,
Neither
parts,
##42
##43
##78
financials
FL
deteriorate
finance,
##row
##/T
si
owed
People
cold
SEC,
Kanto
endpoint
desired
processor
141
##room
charge-off
142
Michigan
trademarks,
(Financial
indicated,
House
months.
weighted-average
year-on-year
outdoor
##75%
discourage
ab
5-
[DATA\uTABLE\uREMOVED\u1
##-specific
measurements
Howard
Consulting
reader
Brown
Transfer
##/o
FY10
timeframe
"retail
##0-
Bel
alliances
20.0
2,000
##94
##ID
INCOME
Select
##lli
##ible
analyzing
Percentage
Marriott
fines,
confirmed
Ram
rec
##(R)
science
Simon
retailers,
Her
##ani
##nda
delinquencies
3-
Bruce
Gap
HSBC
large,
non-s
Club
VI
##mis
audience
##100
##ition
purchases,
profit,
##E)
France,
Associates
breast
interchange
dispute
faith
bi
edge
ma
reward
cyber
namely
73.
Advisers
trusts
realizable
presentation,
electro
mu
##Se
##im
values,
two-
9.1
deal,
##71
11.5
Win
(p
beta
(Singapore)
Appendix
over-
2-
cost-
Operations,
6.5%
initiation
servers
Noble
##ead
View
engineering,
SB
rebates
##gi
Com
work,
positive,
##69
interface
8-K
ranking
##ox
Massachusetts
Sidoti
##3)
##ably
Rates
reporting,
flu
Early
##isk
Ka
##bre
shut
8.9
heat
est
##top
deficiencies
deductible
##ption
##hy
stated,
Franchise
SD
5.5%
Tyco
u
instances
expect,
##ws
Issuer
##g,
Comparable
(v)
Alerts
pack
Consistent
##lus
##under
earthquake
Suspended
##h,
disability
packaged
Banco
(6
9.3
Drilling
assortment
##oni
Rod
Forward
conducts
closures
BIR
BS
explained
##vel
contraction
substitution
speaking
2%,
•a
##,5
fi
non-US
doesnâ
Singapore:
sudden
74.
TP
Road
##X-
FD
assets;
##ack
promulgated
7A.
breakeven
approved,
depletion
considerably
standalone
Markets'
existence
commencement
Philippines
##ens
house
650
endo
cities
##du
##air
penny
alternate
virtual
##E.
departments
scrutiny
wages
has,
Reserves
implications
Susquehanna
(10
##67
99.
Pay
centralized
Zo
Sources
##8-
Dealers
Mol
##stone
Family
Houston
##ket
metropolitan
families
Advantage
indemnify
peers,
##rn
Has
##house
##89
ingredients
##48
refined
mid-single
port
##een
screen
red
Server
installment
Val
Account
Derivatives
##/N
June,
summary,
##eat
##-s
##mar
Components
employers
##87
UT
bears
Upside
City,
07
diversify
judgement
agent,
tumor
Vo
Shareholders'
Full
##Net
##ona
treating
lighting
pilot
jointly
9.4
recognizes
##Mo
##arket
des
recently,
6%,
PPL
Evercore
Ac
gotten
payers
liens
vendors,
full-
heightened
KM
coupon
##ation,
9.7
Pul
##TR
##OM
##pi
eliminating
RT
expressing
CSFB
##ont
Place
##/F
70.
##bo
Chapter
react
##tel
##ek
Electrical
company(ies)
##sha
Col
Bu
non-re
##met
poly
told
assigning
authorities,
##PC
PH
Bri
FT
uniform
ARM
yielding
Supplementary
stock;
Nielsen
##82
corrective
##wn
Substantially
PEG
##week
referring
(losses)
Radio
##Cs
exceptional
##RC
Stanley,
companyÂ
Gregory
Sep
webcast
##dge
FRB
##-8
##ob
##if
popular
at,
screening
recoverability
Hotel
wrong
Pe
Reporting
##sel
##als
principle
accomplish
##tter
123R
##O,
ACE
(ex
Ju
displayed
##era
ounces
applicable,
##ec
##head
pen
Watson
##sure
reserved
approaches
catalog
Cur
Communications,
conversations
Tech
merged
ti
East,
(i.e.
surcharge
observable
##ade
Cloud
NB
conclusions
##mark
Banc
divested
weaknesses
Measures
9.6
##AP
Short-term
conformity
party,
Strength
Comp
ex-
L.L.C.
Truck
Highlights
proud
Bundesanstalt
2H
Packaging
##PR
informed
DB
certified
standby
##Ps
Without
##,6
Independent
penetrate
Fed
diversity
AW
financings
##PL
FC
GR
worst
route
unre
9.8
upgrading
labeling
finalized
Des
aligned
Spain
EM
Primary
##dd
expertise,
innovations
Qualcomm
status,
Pick
##68
thermal
Zi
##64
Spanish
ERP
pointed
concentrations
Lending
85.
Neutral,
77.
Sears
expands
deeper
provisions,
assert
Chi
##cin
super
##,7
universal
simulation
GC
quantity
Palm
finish
Research.
90.
76.
imports
ours
implying
unfunded
OREO
street
kick
yesterday
cancellations
Collins
(2
##OP
weeks,
predictable
Rico
##,8
Tra
##81
PB
anticipated,
ENDED
Fin
##min
NT
135
won
Sur
?2012
complete,
81.
##tics
strengthened
effect,
n.
##tech
##OC
0.12
War
(Loss)
Samsung
protecting
downstream
rates;
savings,
seed
##-D
Ex
Beyond
##my
##gue
Asia-Pacific
sizes
strengths
cardiovascular
LC
Delta
equals
Comprehensive
discussed,
mode
contrast
41.
regarded
##body
displays
##cia
##51
gradually
Percent
##74
Lucent
Exchange,
##yr
##-co
(collectively,
##s),
##B)
cars
cited
spin
downturns
hosted
Creek
##ace
##72
RMBS
bylaws
##s-
consumables
]
positions,
##uring
Genzyme
incorporating
pose
complaint
anticipating
Maintain
##ori
counsel
die
Companies,
##ton,
films
##vent
##lia
situation,
powerful
demographic
pump
guaranty
operation,
JMP
Hu
QoQ
expansions
twice
risk-weighted
##int
diminish
converting
virtue
##A.
shale
SW
mo
fastest
Pet
##nn
Position
ROA
indicated:
Che
(Malaysia)
ha
develops
undertaken
##cast
##ien
##,2
79.
Gaming
regions,
Den
acid
Strategy
swing
##2.
##rel
82.
India:
##onal
integral
Fire
Quick
substance
##N)
enrolled
53%
yr/yr
hydraulic
underground
power,
8%,
##,”
correlation
Drive
Competitive
GI
distributing
restructuring,
engineered
Yu
aimed
Tu
##ili
seriously
category;
reclassification
Shareholders
restrictions,
Gilead
meanings
##ett
##-year
excise
##tions
##nal
harvest
1,9
absorption
(to
opt
schedules
restructure
##7)
Hub
catastrophic
men
Financial,
lu
Engine
12.0
1:
What's
organization,
outpatient
genetic
environments
operate,
diabetes
##93
bodies
78.
Hospital
Hold,
##cre
pharma
LM
Agent
real-time
2011.
instituted
##4)
man
words,
Notice
OE
weather,
##pp
two-year
133
##I)
new,
##hange
##nta
asset-backed
Merchant
##Li
construct
nationwide
surgery
Stocks
biological
10.2
exercises
outperformance
##qui
Hat
consistency
processors
thirteen
revolver
supplied
Chip
lean
purchaser
targets,
Santa
(t
offer,
Montgomery
wrap
Stewart
Wal
Mon
tax-exempt
upstream
52%
##van
(co
##lie
9.9
Art
government,
Louis
intelligence
Labor
specifically,
Work
identical
multifamily
retired
isn't
##tri
##.â
NO
ratios,
Excludes
Au
Yahoo!
Venezuela
(expense)
Brand
bus
ranked
Test
##sch
Sold
Operational
furnish
##tle
(except
Rep
Er
Coca-Cola
Ali
harmed
skin
Solid
DI
##'0
Fluctuations
##lon
trigger
##76
##ura
Nor
dosing
Ethernet
bandwidth
7%,
D&A
Allstate
##X,
potential,
##,3
##LC
miscellaneous
energy,
dollar,
Trends
expend
threats
timing,
people,
5,000
channel,
##urs
##san
##qua
schools
homebuilding
grain
bit,
association
##s,"
replacing
##,4
correction
##IR
anniversary
discover
0.25
##mon
Diagnostics
NF
OT
request..
prospect
Redistribution
deferral
Mor
recovery,
imposes
disposable
Horizon
Alcoa
market;
Ash
##Fi
geographies
Cra
Needham
union
booking
receptor
consolidating
Swiss
below:
Pur
notable
fruit
ro
undertakes
mechanisms
Thailand
1%,
purchasers
interstate
FedEx
thousands,
emergency
##25%
Subsidiaries
##G,
13.5
##hel
Henry
they've
flash
##ren
##/P
Bankruptcy
MANAGEMENTÂ
Americas/United
upgraded
Mal
feedback,
AD
platforms,
200,000
outsourced
titled
ships
mineral
FA
write-offs
lengthy
judicial
Dean
Ray
combining
##61
Bro
reaction
storm
Liability
Kim
Previous
Reference
viable
flight
adult
Above
##ola
disadvantage
enterprises
reimburse
DNA
##hin
1,7
disposed
negotiating
REITs
pet
Indenture
toxic
##II
WP
legally
shifted
Corp,
S.A.,
SF
September,
##cut
doubled
winning
##xy
suit
(g
founded
originate
short-
asset,
subcontractors
##tte
kinds
Excess
##In
statute
season,
##t-
21E
##79
225
Secretary
83.
commissions,
Colorado
pushed
Realized
Down
##eu
practicable
DuPont
##come
Adjustments
supplies,
adopting
baseline
placing
MAR
ta
discussing
Ver
Controls
(m
##We
western
amounts,
Plans
(versus
Enterprises
heating
resident
Selected
territories
##nel
Regulations
(Proprietary)
Okay
interactive
##rec
Indian
paint
##ENT
alleging
battery
ALL
notification
December,
##ino
Initial
(In
sent
L.P.
##part
Force
Stifel
LAE
##/b
save
plc,
opportunistic
publicity
##rus
##chi
protection,
geographically
Harris
##ved
Un
Marcellus
Fifth
3.0%
clear,
Required
GD
Forma
10.3
75.
hyperlink
dialysis
##FT
##ssi
Port
lay
feeling
260
Rec
Morris
Deposits
##pay
Invested
Inc.;
mild
Provisions
TABLE
synthetic
generally,
2.0%
greatly
persist
##level
conservation
rep
reductions,
boxes
Ci
golf
aging
Supreme
silver
##ily
engineers
##uri
comments,
##56
J.P.Morgan
Products,
##a-
grocery
infringing
84.
Burns
Medium
Tre
100.0
approach,
Ge
pressures,
adjusts
Grand
Lines
achievements
4.0%
(30
projections,
##ivi
Video
10.1
cat
Pen
pivotal
warranted
protected
Biogen
123
##mb
jobs
Recovery
##ach
80.
Dennis
##tain
##-de
##rie
copied
##asi
Roche
Conversely,
March,
Ltd;
message
1.25
attractive,
commercial,
##5-
Offshore
Depending
bonds,
##eg
nicely
##ency
Vegas
strive
protocol
streams
argue
Indiana
exc
summarize
##EX
##EA
download
##ole
5.0%
exhibit
##sy
##gel
grows
value-
##-in-
though,
security(ies)
##ics
airlines
Lynch
two-thirds
##plan
op
SM
opportunity,
Obviously
Occupancy
management’s
suspend
(other
NAND
Incentive
availability,
evolution
Idaho
##Bank
CSC
202
##oma
Maxim
10.7
truly
Focus
restatement
frankly
asserted
**
files
##cho
nonrecurring
WM
PBM
formerly
ce
disk
anyone
##Pa
DSL
significance
bottle
modeled
sometime
##i,
oversee
aspect
##ini
courts
commercializing
##nder
tablet
##83
OM
##ste
Rights
##La
(an
Promotion)
slides
rare
reasonable,
mines
##sse
Chen
implant
BT
##gre
slowly
##mal
##201
impairment,
Premiums
equates
##men
responsibilities
forces
11.0
tariffs
##s"
gu
##TO
off-
orphan
##ield
tools,
##cle
pronouncements
plaintiffs
hour
##LT
##-se
##ssion
trending
IND
Tools
wave
##an,
retire
commerce
inform
##cent
Effect
sample
(on
Publishing
Sports
Penn
repricing
##fied
sta
30.0
progression
attribute
##atic
developments,
##ef
##ress
##oy
revenue)
eligibility
EOG
together,
delivers
275
Permian
mal
whole,
paragraph
##ua
takeover
(where
validity
##IL
UPS
stemming
##ara
##chan
##in-
Board,
hired
campaigns
Great,
8.5%
0.09
math
emphasize
SBA
(Japan)
##-7
159
developer
##in,
trajectory
consuming
##tin
Interpretation
wouldnâ
designs,
pushing
08
fifth
detection
return,
slot
##wear
##G)
Gil
10.6
specifications
Hughes
##mor
promising
cardiac
##can
s.
reproduction
Spring
Francisco
recourse
proceedings,
inventories,
Price/
##ism
exiting
guest
270
NIM
England
Mi
##oca
theme
recognition,
Trial
Arch
Mills
##Tech
Timothy
sand
Currently
5-year
handsets
Os
##mat
higher,
ensuring
##59
##S-
ne
far,
strain
plant,
Recognition
##phi
320
action,
mil
10.8
Wind
attractiveness
10.4
##unt
##mann
runs
plants,
employs
Sean
Pre-tax
##ei
next-generation
86.
#1
##-driven
exposure,
Centre
##sco
composite
mitigated
##/t
on-going
log
Live
0.30
e-mail
cross-
possible,
responses
Andy
duties
87.
103
accruing
drugs,
non-a
##ata
Arizona
##mit
Dai
Ren
Pte
Edwards
##esi
##bt
parallel
##eli
##ND
##ball
him
Centers
fab
##MP
Sandler
##LY
smartphone
supply,
##hn
##or,
PR
Ca
Island
marketplace,
##58
quarter-over-quarter
##ator
##Ho
Hawaii
108
disasters
time-
##nch
##all
Vol
significantly,
dividing
##fin
##eni
everyone,
107
1.0%
##ux
characterize
Weighted
Expect
##cri
reinforce
steadily
Capex
Alpha
?S
##/e
second,
much,
Realty
composed
abuse
playing
semi
##FC
intensive
Backlog
really,
Allergan
anticipate,
Salomon
Box
salaries,
lea
(not
rea
sees
top-
Fe
Discount
Acc
280
##ient
customers’
##bor
predicted
##ku
statement,
##ssa
remedies
comprising
surrender
instability
withdraw
scores
20%,
high,
doses
aviation
communicate
##-i
considerations
wider
Broad
geographical
11.2
Unregistered
indefinite
USE
multi-family
conviction
\u
##BC
York)
Action
##'s,
ASPs
Garden
transportation,
cargo
anywhere
differently
delay,
FINRA,
waiver
Cas
Offering
sufficiently
##cop
Discovery
high-speed
92.
builds
Comments
incurrence
broaden
creative
tra
cubic
draft
retail,
##FO
Peoples
Fra
95.
##ever
LLC's
A&
homeowners
suffered
performance-based
managerial
fa
SBC
payable,
supervisory
layer
Transmission
##ity,
##Year
protections
w
policyholders
John,
(Thailand)
Ser
I.
Vi
##vin
02
##UC
Hor
grow,
##care
accessed
##llar
emergence
toll
(J
##dal
caps
##Vi
##em
Outperform,
Alexander
Qwest
organically
BO
stem
blend
2:
##-N
Inc.'s
transparency
resellers
acquired,
optimal
##Wa
routine
casual
("C
##TION
Aero
##c,
unclear
##ici
50,000
sizable
shareholders'
redeemable
Broadcom
WS
##fen
2,1
machinery
Sanford
Data,
window
"Re
Waste
2,2
Aetna
parameters
Incremental
posting
"S
##light
Bryan
##PI
acquirer
rentals
##form
afford
LD
Wedbush
attack
creditworthiness
##ional
O'
repurchases,
beer
concessions
Issued
IQ
hospitals,
Factorsâ
April,
##book
definitions,
Suite
es
Having
worldwide,
scheme
##hl
constantly
graphics
background
##ake
##eve
102
Adjustment
nominal
fertilizer
Schwab
reinvest
burden
##57
Gro
##nie
molecule
Motors
ni
completed,
Africa,
##CL
OpEx
MU
steam
##ility
Again
Deb
30-
rendered
"the
checking
skills
##hol
phases
yen
by:
repatriation
July,
##M)
Jude
"f
Mellon
overlap
##alt
##rea
fluctuated
regulations;
small-
tech
##-ma
join
Underwriting
OW
grid
Material
Delivery
Entities
##-level
picked
##iva
88.
logic
realignment
fore
meant
vehicles,
disc
Representative
Activity
Less
##aci
Hy
89.
Group's
##uch
##AD
redesign
##ship
##tail
##-free
##pan
reservoir
Contingencies
Lafferty
Rating:
Korea:
mono
16.0
##oi
collateral,
##ac
listings
learn
(at
Barry
Raising
Neuro
Room
YTD
POS
timeline
93.
##bro
##rch
NYSE,
##uit
pressure,
financially
PI
ceded
UK,
CON
15%,
##vi
unpredictable
approaching
enroll
##lle
Indeed,
LED
##d)
Until
streaming
green
good,
##rect
##bin
Platform
briefly
one-third
##ari
benefit,
##rol
buffer
GO
OC
debts
petition
Guggenheim
Argentina
D.C.
Cha
4.
automatic
Supervisory
(1.
##win
preventing
Variable
11.3
Sure,
Mining
cruise
Tower
Bea
initiating
1,8
thin
SALES
Advisor
Anadarko
Australia:
Ownership
utilities,
##ATE
laid
Times
##&E
greenhouse
Yes
PUC
Exelon
##ji
"C
##lled
##illa
ba
##uce
##ash
2H0
##dor
Multi
##par
currencies,
MasterCard
sto
Road,
speeds
##nar
UC
permanently
Hardware
HA
recycling
##/200
uni
render
##Lo
Would
recruitment
timeliness
##En
reversed
EL
securitized
difficult,
Nesbitt
h
##inc
inline
Carrier
Dep
examples
tightening
closings
close,
##/G
Increasing
LO
lodging
54%
91.
unallocated
Station
NET
106
widespread
1992
Mer
##-I
Netflix
Northwest
updating
104
S&P's
costs)
taxed
Universal
concentrate
affordable
hold,
Novartis
##mina
TRS
Met
SELL
publication,
##7-
McGraw-Hill
ABL
##.com.
Clearing
14.5
##wh
11.7
undergo
pollution
company-specific
Nicolaus
severely
inquiries
dividend,
reality
P/E,
Ministry
OCC
spoke
day-to-day
##cha
hurricane
Omni
##6-
##ville,
##ala
##owned
translated
1933,
MANAGEMENT
price/
text
##enter
58%
##LS
Unfavorable
notified
variances
signing
310
##nti
94.
Intuit
Fo
disease,
##x)
tried
##car
terrorism
attached
CAT
10.9
(formerly
Orders
(c
multiple,
##iness
MBIA
bonuses
site,
Casualty
Center,
##vor
examinations
f
gradual
warning
3/
11.1
Play
usual
requirements;
expert
15-
Tangible
##ses
love
delaying
300,000
methodologies,
bids
##sts
##rit
##/g
denoted
##tem
aim
Ameri
enc
balance,
Hei
Bur
CY
Switzerland
Compensation:
Extraordinary
Solutions,
lab
efficiency,
##mpa
customer-
predictability
inflationary
Federated
carries
Viacom
Farm
Shan
life,
blocks
9%,
##rance
fragmented
Sdn
Alabama
realizing
AOL
##ode
rata
2009.
Kenneth
Boe
luxury
Counsel
time-consuming
in-process
Acquired
powered
receive,
Hedging
##nan
dual
accordingly
Hotels
##R)
Paid
https://
Brothers
##ne,
Oklahoma
##C.
diagnostics
(6)
survival
##Te
##max
Ze
insights
2022
11.6
relying
##ag
surety
coatings
October,
##EBITDA
##EM
underwriters
C&I
basket
Lincoln
2.3%
DAC
labor,
containment
Guidant
e-
Telecommunications
risk-
Casino
56%
Mall
Week
regulating
follow-on
##nm
##N's
##ila
EQUITY
##ensi
exemptions
Opinion
CFA,
East)
creditors
rationalization
##tex
violate
rev
immuno
27A
##ond
partner,
desirable
Bernstein
funding,
Wil
consumers,
1st
pan
ceiling
ree
softer
Space
container
judgments,
previously,
Bridge
team's
##ered
##llo
signals
Recommendation
##action
##nit
(Hong
185
surge
PSC
flood
Ocean
wells,
country,
wasn't
EDS
4-
Float
evident
newspaper
(if
Coke
Cho
Therapeutics
sustainability
unearned
constrained
refunds
lung
BM
Symantec
deb
matching
cautionary
comparison,
##ith
first-
57%
beliefs
Freight
Sol
Meeting
Avi
ADP
##bra
##G's
##e.
onshore
hemo
models,
TN
enters
wonder
deceleration
##gg
111
club
PCI
Sara
##card
reinvested
##meter
##fra
Sterling
(Far
Fred
Cou
verification
tariff
##any
GHG
11.4
CRE
##nth
off,
Gene
##oc
Guided
1000
##vant
securitizations
FPL
##-o
"o
payables
##gra
CY0
##tric
A-
Sy
##gene
Ya
##nne
Hartford
Syn
Tokyo
triple
MONTHS
##ified
##%),
109
7-
##bl
##eco
wafers
Anti
EV/
##-li
imagine
##vol
buys
##emi
catch
thereafter
containers
Sen
Franklin
exchange,
Authority,
##Care
##,Â
##dis
Royalty
##K)
Century
Adams
##s.com
##quity
##tory
client"
##/2
##/c
##-by-
##SL
making,
Chile
registrations
##T's
yield,
annuities
idle
demonstrating
Comm
synergy
##don
Various
(1
fixed-
Read
##ibility
admissions
0.11
stick
liquidate
LTE
year..
em
Events
0.50
Imaging
test,
##LO
##une
pledge
module
discovered
para
IA
Att
##orm
##forward
renovation
per-
Mattel
Businesses
Better
##hal
conversions
mitigation
obligation,
Cre
strict
pay-
##al,
shortage
Ambac
closing,
Non-interest
Int
##erm
Housing
history,
Japan:
Baird
spare
NEUTRAL
##MO
dividends)
FY09
##ts,
prepay
Stock,
French
benchmark*
Gi
Mat
E-
defendants
industry's
deteriorating
Purchased
98.
Alaska
cautioned
Weight
data)
intrinsic
Broadband
##ious
constructive
##-than-expected
lumber
'1
Rose
Interactive
Campbell
JNJ
months)
Broking
philosophy
##ann
BG
arbitration
frac
CFO,
##-R
Let's
customersâ
##/in
NGLs
merge
monetize
other,
STR
PayPal
Ultra
extends
density
indefinite-lived
Hard
##tation
Salaries
repositioning
compliance,
sluggish
Imperial
50-
Industries,
downtime
##TY
CAD
Classification
Only
SH
binding
##inte
Pra
unaffiliated
Regions
##-12
##-g
Target:
prescriptions
Disease
biopharmaceutical
Ly
3Q0
##-and-
notebook
mi
Affordable
licensee
due,
##igh
kept
Em
Affiliate
albeit
ban
##for-
96.
know-how
derivatives,
outlet
##ida
##Ma
differs
outsource
decent
##ug
"AC"
##town
single-family
der
determinable
lastly,
feasibility
undervalued
uncollectible
premiums,
Servicing
Equivalents
Cumulative
Kong)
(de
3,000
Ending
Donald
##GA
##dle
innovation,
s,
##the-
rural
PL
impaired,
measure,
BL
(w
One,
Endo
Nonperforming
force,
##ors,
obsolescence
queries
06
##.com/
accomplished
Stockholders
weightings
migrate
expensing
12.2
11.8
##making
ThinkEquity
inc
differential
API
challenges,
Us
Oregon
findings
##mine
##MENT
operating,
Show
SAB
Poor
LCD
generics
entirety
##Gen
13.0
DD&A
restoration
inclusive
##name
flat,
Commodity
sea
SaaS
CO2
indices
(after
ru
allegations
proportionate
attain
##ees
##tream
##-la
Russian
##bly
1.6%
eventual
familiar
Ava
Glenn
Universe:
policyholder
2,0
Metro
smooth
phones
on-site
2Q0
##IE
##HA
Silver
simplify
WI
193
Thi
DIS
IFRS
demonstrates
Recently
Casa
arises
(be
attempting
phased
2.4%
Ordinance
portable
Engineered
franchised
(based
competitors;
fuels
Pre-
collecting
Did
precision
##view
delays,
south
midstream
GSK
##5%,
IO
Incorporated,
practical
##ng,
Pakistan:
##ound
basis)
ups
ball
##kes
divest
restore
##IM
productivity,
resort
pla
tax-
Diamond
6-12
marginal
144
tele
agents,
contents;
vascular
Trademark
metro
##N,
##-w
wants
metrics,
gallon
anchor
Dra
REIT,
NU
EF
0.40
enactment
struggle
infusion
##KE
Motor
UA
flattish
CIT
##ired
curtail
inconsistencies
NV
##lp
##ners
Han
##non
dilute
underperforming
(11
portal
Four
##/B
##EP
Taiwan:
##y-
App
tower
Ian
6.0%
Inf
if,
su
determinations
##ski
tougher
0.13
low,
m)
molecular
FIFO
Son
2.6%
advisers
IF
occurs,
Company-
constructed
##imo
assignment
"B
better,
Chevron
Outside
WFSIL
nationally
Moody
premier
deficiency
Navy
teens
##Ra
pediatric
##sp
underwritten
May,
captive
Costco
aided
BOE
black
##/D
presentations
gases
##ret
ordering
in-store
exited
MR
97.
application,
Implied
multiplying
Equal-weight
Plan,
2.7%
62%
accepting
Terry
Bloomberg,
you'd
fiduciary
vi
tape
retrospective
IL
340
rebate
Shop
industrial,
patented
specify
##eno
##logical
Nokia
Exp
scale,
##cycle
under-
white
##BI
Tal
wholesalers
deploying
Micron
##nos
Television
justify
access,
Lab
##ese
chosen
MH
con
##ZA
applicant
costing
##rica
beverages
Ten
shutdown
messaging
EVP
members,
compliant
1.4%
Intel's
16.1
NJ
training,
Lauren
merit
##aw
strategists
ran
incidence
Jen
outage
16.8
apart
Italy
12.7
##T)
##en,
defines
circuits
Pty
3.3%
bright
Fleet
DR
Missouri
##BE
Kodak
ventures,
##nb
broadcasting
2.2%
occupied
SCE
says
mat
In-Line
secondly,
12.3
Improvement
SIPC
pass-through
##oll
excessive
Partner
medicine
transact
##tia
##rating
FO
1.7%
04
9.5%
Price,
sitting
computers
Works
38,
3.8%
inhibit
2.00
##ost
##-201
##ffe
##ce,
customer's
(8
2,4
massive
license,
negotiation
Roger
Intellectual
outages
sooner
publications
disasters,
1.3%
17.0
143
##gon
##/In
Revolver
##cat
##ctor
electronically,
Bal
##DM
Governance
##Com
Rail
(pro
##ose
carriers,
mile
##-down
##eria
##UR
##bb
urban
Israel
##P)
Registrant
someone
beauty
research)
thereof,
backup
LE
19.5
##eri
##gram
stack
##vac
Covered
guiding
consultant
backlog,
SECURITIES
Starbucks
non-recourse
12%,
3.4%
205
OPERATING
15.5
venture,
##Si
##count
performs
sponsors
curtailment
excellence
Assessment
122
fraudulent
##,â
Brent
bundled
cons
prescribe
Vehicle
12.1
Practices
distortions
PER
##rne
large-cap
Kong,
'08
##usa
laboratories
improper
##dium
Logistics
encountered
groups,
##tent
Resorts
CPUC
Brett
DT
incident
Ph
career
##die
hi
114
fracturing
well-positioned
float
##oti
non-f
##osi
##tical
redemptions
va
250,000
7.
Off
elaborate
STA
10-
1.8%
EV/EBITDA,
undeveloped
frankly,
click
##jo
3.6%
2021
##&P
Jobs
meter
MG
Avon
Va
12.8
default,
Contribution
Murphy
steep
mall
clarification
Fla
cleanup
Look
(USA),
##ets
factored
?stock
11%,
backdrop
Square
examine
credits,
mandated
18.0
##Os
##hor
ACC
##usiness
##gal
treatment,
##vic
exports
##tori
shortly
20,000
reinsurers
RISKS
"b
wall
restaurants,
NRG
##for
Minnesota
BD
plate
impossible
Sher
quarter-to-quarter
Bol
192
1.2%
judgment,
11.9
##set
Boo
back,
Unlike
Returns
##dale
uninsured
annually,
##research
Cer
Third,
##m.
Premier
12.6
lifestyle
inspections
##-fi
settlement,
experts
plasma
Patients
Parts
topline
terminals
poised
concepts
(Exhibit
##gic
end-user
##ym
##more
interconnect
##tier
requisite
Raw
KB
Final
headline
##/m
hardware,
TL
##iss
##pers
multiplied
T-
cigarette
##nse
##mg
Borrower
procure
licensors
Medi
##gn
Tor
purport
Still
horizons
'09
through,
606
ACA
serviced
exploring
presenting
12.4
fat
distributions,
##HI
OIBDA
like,
##xe
aggregated
payment,
le
outs
20-
Qua
##man,
165
##rket
cleaning
resin
##rc
company-owned
picking
("A
(se
##8)
Here
Ralph
solicit
Teva
##Point
Portfolio:
##/H
troubled
year)
topic
investigate
Actions
intra
FactorsÂ
112
Voting
OI
22.5
advice,
validation
##400
WACC
##aul
##-b
verticals
store,
van
CorporationÂ
reading
debt-to-
engagements
##dit
acknowledge
40.0
2010.
CORPORATION
##vit
Long-Lived
##ail
Cop
careful
wi
ANDA
companies;
##ez
ordered
Interests
pharmaceuticals
pumps
Bee
day's
dip
5)
FY200
##Us
boards
resume
averaging
##sto
delivery,
##ment,
##SO
Midstream
##/p
##here
inpatient
##driven
integration,
Tennessee
(fi
routinely
Scotia
haul
tail
Year-
##th,
visual
14.0
Used
theater
lease,
BofA
escalation
subprime
16.9
##lea
moderately
fundamentally
ABC
1940
indeed
Allen
packaging,
infection
##NO
internationally,
partnerships,
##cu
competitiveness
##To
degrees
Jose
strength,
Link
3.7%
band
Clearly,
analyzed
1-2
Tel
##ena
##cel
CU
##mato
##oxi
2.8%
bn
##ution
saving
monetization
Set
pathway
Release
shrink
1/2
13.2
##cted
Restaurant
chicken
17.6
Ball
Ameren
Nortel
advise
foundry
frozen
Take
credited
APB
Directive
ranged
responding
sha
17.3
##RD
RM
Bor
fla
guys,
increased,
should,
VO
155
##venue
CLO
referral
protocols
completeness,
MSR
##gment
remedial
practice,
amortize
##elo
##pha
exceptions
##tom
17.2
ent
##rop
February,
damaged
##1-
##fication
Ratios
You're
streamline
IMS
HE
17.1
command
##CS
16.5
Petro
Geo
reserved.
##CF
0.35
planning,
customersÂ
convenient
hyper
deems
##BS
##tion,
monitored
pe
decisions,
flagship
Randy
Expense,
non-in
Patient
guests
##300
Disposal
une
aren't
Mos
motivate
3.2%
##D)
Stifel,
city
Issue
##via
EV
cohort
obvious
0.18
17.5
Segments
optimizing
Assumptions
significant,
antibodies
wastewater
Science
Expansion
seek,
cards,
However
(income)
outperformed
##alo
##P.
profits,
##Cap
Collaboration
star
850
##kt
12.9
Department,
captured
calls,
##ung
Youâ
environmental,
Resource
##road
##rge
##BO
Marshall
sorry,
Mix
tablets
hub
imported
learned
##&L
accredited
##fo
V.
forecasts,
Cy
Toronto
?O
counts
##ured
##bri
switches
Progress
bundle
"p
##type
##mil
Avg
0.14
MAY
##of-
24-
translates
expenses;
Taylor
Liquid
(Re
word
interests,
unusually
EI
Greater
proof
expressly
Stra
##ram
400,000
granting
CONSOLIDATED
grades
ceased
functions,
complex,
INC.
progressing
##-si
mills
bias
##L's
nu
Juniper
Oct
Ak
Ur
Interim
##ema
Plaza
##-oriented
Aircraft
-3
Explanation
HIPAA
132
smartphones
hinder
##Tra
conditional
2.1%
Profile
decommissioning
Rules
assessment,
##stein
non-controlling
classify
##:.
firms,
MetLife
promise
4.3%
modified,
##ken
trillion
Connecticut
Bl
"Important
regimen
##ela
##ists
SPARC
yoy
Stockholders'
Automation
6.
HB
330
##ima
61%
Glen
broad-based
Black-Scholes
affirmative
wonâ
Rig
35.0
13.3
subscribe
portfolios,
official
cre
patent,
q
Debentures
inhibitors
interest.
JM
##his
Pac
##unit
identity
tire
Iowa
foreclosed
script
Issues
staff,
##CR
##cket
17.7
Bakken
##PE
sensors
speculative
Report,
order,
##IG
##-U
NOLs
##not
paper,
Co-
##ave
minute
fuel,
##-H
repeal
CMBS
13.4
Prepaid
(both
##iti
hydro
##own
4.2%
chains
Neu
stockholders'
##lines
southern
temperature
noise
weakened
transactional
##OT
5.
##ies,
##dri
##ami
v.
Anderson
plenty
valve
"Accounting
17.8
63%
Lac
Speculative
infer
fee-based
Dun
door
omissions
##Link
##000,
Ame
transform
Korea,
predecessor
2.9%
##je
Recurring
Analyst(s)
full-service
Der
##Ga
millions)
VE
Co,
Marathon
##EE
bil
##lect
Oak
systems;
Ventures
effects,
##fu
"d
198
spike
##8%,
redeploy
Lead
PCs
Mike,
institution,
successor
exceptions,
art
judge
aside
comprises
Lloyd
possess
attendance
GPS
Cancer
Kelly
sublease
improve,
consolidations
EXP
Fluid
Commissions
WellPoint
Surgical
nitrogen
CSX
##aging
overhang
Sell,
oilfield
surcharges
13.1
Ireland
##specific
##/co
factors:
Spi
Technology,
##urc
realistic
EST
corporation,
215
13.7
##cover
Kind
8.0%
Cell
67%
Opportunity
pre-clinical
indemnity
weigh
petrochemical
121
concrete
lending,
Jun
Spin
Money
(Australia)
efficiencies,
Humphrey,
##graphy
##HS
Put
2,6
importantly
FF
cement
154
"E
18.6
[DATA\uTABLE\uREMOVED\u
375
Ce
PMI
##/I
##ub
selectively
tank
##GI
##rest
snow
hair
stood
precise
Lib
balancing
##F,
transitioning
BBB
(K
Resources,
investigational
##K,
Affiliates
##sk
##-on
##Ba
peripheral
Apache
jewelry
Persons
Hilton
lower,
cheap
Prom
reduction,
catalysts,
Nova
1.1%
SY
Ter
unco
Leasing
mln
oriented
##nger
##No
Honeywell
Bristol-Myers
aircraft,
##gin
long-term,
recommendation,
transit
##tha
Hall
Arc
yet,
##V)
Pass
18.2
4.4%
limitations,
17.9
118
adj
13.6
##Fu
##eed
DSO
##Sa
Sony
retains
'12
Appro
##zen
##shed
complicated
18.4
146
undergoing
startup
##A-
##pd
##9)
derives
SFG
consumer,
Mkt
191
Simpl
regulatory,
##she
P/
consummated
filings,
wine
responsive
(%
##ato
18.3
altered
topics
fu
##UM
decrease,
Check
##price
##."
reiterating
Para
##ifies
span
appearing
##/(
##ath
consummation
(Dollars
Kath
Equi
filing,
Intangibles
Internet,
valued,
64%
(13
##Bo
20.5
Nuclear
##ule
##oid
ADC
59%
connections
##Ta
ounce
absent
##nding
physicians,
Colgate
linear
hands
profile,
households
##mid
382
reputational
##lig
Affect
assisted
123(R)
##enti
fixed-price
Africa:
##RM
2.50
promissory
12.5%
Beach
Meanwhile,
needed,
hundred
05
Dia
Albert
problems,
Connect
##-In
author(s)
Mad
company:
Much
##perating
re-e
##lam
overnight
Justice
low-end
Seattle
SV
outlets
mor
##perform
UN
shorten
4.6%
0.16
ca
lieu
intensity
1990
foregoing,
PPA
##For
Fiber
4.7%
tone
Philadelphia
GAP
regain
effectively,
four-
loaded
Generally
##ott
race
Today
foresee
appliance
hourly
Iron
##1/
depreciated
18.1
spill
##ovi
Ger
Peer
bump
Bru
1.9%
cash-
maximizing
Other,
remediate
##eva
Reduction
hypothetical
Details
Ops
##IGHT
stored
Arrangements
fallen
Cincinnati
om
August,
Laws
Gal
##ates
(Expense)
same,
Brokerage
##losure
##-20
rehabilitation
194
health,
13%,
opinions,
##/s
RL
set-top
Five
Zealand:
Why
wastes
4.8%
21.5
167
tax)
ABS
##son,
recall,
hasn't
Ele
differentiation
page.
##st,
##ogen
specifics
18.7
Discover
z
political,
##wi
##TT
S-
##R's
bills
BH
identifies
##ano
based,
authoring
propane
U.
Mylan
##ama
wa
DD
RV
Stock-Based
Periodic
3.1%
installments
##Mar
##lf
(CE
Retained
##lac
Jamie
Bonds
Bolsa,
location,
##Star
##Source
F201
##lip
GmbH
##yd
##dra
reproduced,
northern
mold
foods
##y's
had,
Methodology
below)
0.3%
specialist
18.8
collectability
grace
DH
##itor
section,
Oc
13.8
self-insured
168
Aside
P&C
obligor
Consolidation
AFS
##-di
the.
mgmt
##usion
##rant
somebody
makers
##hro
Offsetting
##aco
triggered
MSFT
4.9%
##-G
candidate,
(of
believes,
lateral
Soft
MSRs
months):
Bcf
ch
holdings)
Photo
##duction
##ju
(but
HM
##nte
##nter
ineffective
169
##arm
##llow
##Po
Via
ap
Keegan
4.1%
received,
undercapitalized
Ori
own,
(ca
##n's
rock
Silicon
##3-
Mont
recovering
Kohl's
Dec.
204
##RY
DoD
Pu
Madison
30,000
refresh
##-time
uncover
(Buy)
APC
Reg
"e
concession
(pre
##d-
reps
RD
fundamentals,
wear
5.3%
##ind
tighter
ITT
##tine
cla
Ol
19.0
##/L
Hey
Qui
Mag
industry;
Presentation
users,
McK
Host
##hold
wrote
partnering
Ind
##TH
##r-
goals,
ISO
##4%,
HT
placements
Davis
166
##holders
cooling
##eron
##RP
promoting
women's
Fisher
Tobacco
Cardinal
##service
Flash
Directors,
market's
##vestment
##nds
incumbent
##H,
Fortune
##/Re
megawatts
##uel
Reconciliation
begin,
cul
##3%,
Monsanto
##but
undertaking
Basis
Studio
##flow
Worth
minerals
PMA
deflation
clearly,
Justin
Bla
thousand,
Film
##bel
cloud-based
##xel
UW
Ann
NOTE
10.5%
##vy
correspondent
##mpe
unt
##LD
Fer
anytime
##eas
te
addressable
1Q11
tri
510(k)
automotive,
##One
##OW
Jerry
##Stock
Secondly,
enhances
Bow
14.2
workers'
Recall
stimulate
no,
markdowns
gen
industry-wide
##0/
USA,
Carolina,
##kers
overcome
##ification
augment
antitrust
##store
##bli
Total.
Structured
Listing
small,
participated
Inn
ingredient
Ast
trained
##ital
Stryker
Mann
diminished
seat
rigorous
failures,
above)
Stock-based
##tax
##NCE
2,7
unfavorably
##rst
varied
meat
##9%,
profitably
ser
depreciate
##growth
Third-party
4G
##sec
Cro
per-share
noncash
##ign
B-
int
##6%,
Devon
Kraft
5.6%
decade
128
clubs
analytic
period-to-period
Assurance
Nutrition
FY201
printers
high-performance
unwilling
14.3
meeting,
Research:
error
feels
Schedule
##ras
weaken
##-day
Provided
growth;
Typically,
##lc
important,
accessible
##umab
Ve
.0
##link
ops
In-
standardized
fueled
Mercury
##cf
milli
3.9%
Proceedings
##sey
Tower,
BAC
Management’s
Unsecured
seemed
Millions
non-e
Humana
19.9
execution,
parking
fitness
##outs
Est
out-of-
Morgan's
DU
Ky
ADR
##ank
Len
1.15
entity,
##wan
Proc
##able,
unavailable
refinanced
media,
symptoms
instant
appetite
open-
##omi
Ji
##/w
visible
290
Kin
##7%,
##us,
enforcing
Factor
66%
##pic
respiratory
optional
noting
iPad
FirstEnergy
spec
Wynn
results;
sovereign
##rator
trustee
14.4
##fil
##Max
distinguish
CG
perfect
McDonald's
##adi
Nov
overly
##P-
(NYSE:
F1
attract,
##/Ca
Alberta
##mab
##6)
movie
CNA
##ros
gallons
year;
Wes
hole
state-
3.00
##-Co
##cess
technical,
Sanofi
Kar
##s..
##duct
certainly,
http://www.
hitting
company..
"De
Poly
4,000
below-
##nto
Info
noticed
3:
##B's
ComEd
viability
14%,
Sym
Ret
##nent
pres
Treasurer
F2Q
wishes
de-
##pol
Nex
watching
##LP
##D.
##Corp
Magn
departure
2023
governed
broken
Ronald
##fuel
##fall
5.4%
PepsiCo
Stephens
aggregating
cancer,
us;
##1%,
personnel;
j
effective,
nickel
0.17
Sand
rational
quartile
13.9
##sb
amends
assured
##cher
compiled
restructurings
Niederlassung
##-le
##ury
English
Sp
TRA
##high
cri
Guaranty
Closing
above-
cycles,
ads
Rent
##PT
chain,
##thi
Maintaining
Ana
Prot
5.2%
CPA
insulin
System,
##kel
deducting
always,
resell
depress
mid-teens
158
Ohio,
##Wi
beef
(Registration
##-quarter
(i
Cyber
promoted
##ERS
Tru
revs
##e)
..
payor
cent
inventions
prevail
disproportionate
##rp
Branch),
##var
rein
millions):
##vity
FY13
VoIP
##fully
heads
##grade
College
account,
Broker
AEP
Avenue,
14.7
##-11
C-
seamless
Walter
Shar
qua
Integration
retroactive
F3Q
deployments
illustrates
foodservice
Nonetheless,
feedstock
19.4
CRITICAL
(19
all-
pulled
A/
Bed
14.6
##rease
ga
Hospira
CIGNA
##pie
consolidation,
bl
fuer
exchanged
CAR
##--a
PLC
harder
Johannesburg
campus
reb
(di
direct,
operators,
dining
##America
tolerance
expensive,
Tur
November,
formats
would,
local,
def
##V,
##uth
##key
##DC
##rom
0.6%
refu
##ulated
##-30
Whether
style
##emp
Citrix
2012E
NetApp
##fit
thing,
demographics
##just
##-th
5.7%
Kentucky
##lm
downturn,
CME
INVESTMENT
##act
transmit
##2%,
Neil
yields,
DF
Fundamental
F5
19.3
eliminates
Clark
burdens
intervention
district
14.1
contest
pharmacies
ABT
prostate
##hr
Analog
##TED
eastern
guarantor
Generic
disruptive
trend,
valves
8-
center,
ceding
##xin
Sti
##ita
Airlines
associations
WW
satellites
achievable
Monster
newspapers
##nna
Cele
ample
awards,
generators
Progressive
Xerox
Vision
Dakota
Recommendations
Italy,
surprising
PPG
Charge
##hen
commensurate
MV
(about
##nz
shock
hurricanes
scalable
##&A
Homes
spite
(e.g.
19.2
Colombia
refuse
Hen
Expectations
mil.
renal
Morningstar
Cabot
instructions
endpoints
TDS
Category
Appeals
##-L
##rte
Finanzdienstleistungsaufsicht
Aaron
convey
##az
fee,
142,
emphasizes
Phoenix
holdings,
##gl
RB
staying
appointment
Caterpillar
resc
Activ
designing
concerns,
approves
Earlier
5.1%
prospectus
161
##iri
##/1
nonre
capitalization,
Ortho
FR
##nf
7.0%
6)
18.9
EE
##600
Rel
##B.
##rac
##sol
Ven
wet
FDC
played
Dol
##blo
Bank’s
regulator
SJ
modern
Flo
1,500
cleared
advancing
##lb
vested
Virginia,
enjoyed
stabilizing
Tar
##sc
ju
113
incurred,
bound
intervals
##ention
Pol
Fore
Underweight:
##BR
electronics,
Display
##iro
Jr.
landfill
timber
##GR
Grant
##S")
Grupo
Ideas
Today's
intentions
Team
Russia,
(including,
downgraded
alluded
goods,
Josh
Mel
unlimited
meters
boosted
##.5%
6.7%
Metals
Pic
ML
Sequential
(For
##worth
Aviation
undistributed
"G
Exa
30-day
Weather
##Trust
prepared,
gi
Pennsylvania,
vaccines
bed
148
##kee
TRI
Lakes
Friday
defensive
(200
##rat
##omp
Jackson
multi-c
systemic
(14
Celgene
Cad
ROI
19.8
##M's
Ye
Ban
inefficiencies
twelve-month
Jean
21.0
14.9
Quant
listen
splits
Structure
##eh
telephony
attorneys
HO
verified
##lation
food,
##mate
Broadcasting
lend
Sign
quarter)
Overweight:
0.4%
Operator,
cure
787
Event
##zan
##generation
Evaluation
exhaust
*Percentage
Sum
surveillance
Ari
##avi
y-o-y
Metal
FY08
School
Ant
14.8
Geographic
##Ds
MLR
investigators
Climate
19.7
19.6
Flex
stance
0.7%
v
au
FY07
##burg
RG
5.8%
##vest
525
INFORMATION
Composite
devaluation
Ins
liver
4Q11
##cies
19.1
extract
pooling
##cking
Appreciation
Invest
Journal
Taiwanese
303
##risk
combines
punitive
profiles
4Q10
VIE
originating
Chan
unsu
Floor,
cooperative
Issuance
##nâ
task
insert
Illinois,
MRO
##gli
Fresh
pumping
multinational
Status
Inv
##Cu
candidates;
13-
##fs
Game
withdrawals
##X's
visited
É
##gate
##9-
2711
2,8
outflow
zone
Applicable
municipalities
sustaining
dealerships
Fol
48,
##.N)
geo
rewards
##P's
##cen
Luc
claimed
('
##itu
quarter..
offices,
tests,
tonnage
\u\u
corner
acquire,
##ctive
Staples
incrementally
Squibb
proactive
warehousing
interpreted
Zealand,
##pati
##J.
revenues)
hundreds
company’s
100-
mega
INTEREST
##M.
issuers;
(61
licence
Bancorp,
non-ca
HCV
lower-
##eta
(ma
##GAAP
##-W
depend,
bla
##opr
patterns,
##ban
##SM
sur
U.S
68%
chemistry
run-off
variation
##cro
disappointed
recommends
London,
##Be
##run
Shi
Shell
##shing
PET
##fill
Trip
##state
remodeling
discussion,
##stri
CS's
insolvency
"Tactical
##nex
recipient's
##ges
Owned
features,
Rest
sweet
incidents
sciences
pursuit
##sin
DOE
##cus
bull
Chuck
Letter
Veri
188
(expense),
##ington
apparel,
##nsi
6.3%
leg
board,
powers
LTD
Drivers
Cisco's
##uck
incl
quota
Cantor
correlate
##x.
Mas
##ria
chairman
##ount
virus
actually,
prototype
Sigma
##por
deals,
factoring
navigation
certifications
knew
?F
##bat
converts
Analyst's
Property,
Camp
prospectively
hopeful
intermodal
##offs
Accumulated
England,
fixtures
O'Neill
contractors,
Source
Ap
"co
Hal
EX
[DATA\uTABLE\uREMOVED\u2
6.6%
##Mi
roof
Dura
utilization,
consummate
employee-related
type,
##20%
compromise
Fos
15.4
Add
coronary
proteins
PJM
codes
activities;
Kellogg
hopes
##ia,
20.1
131
Sydney
##/V
25-
lapse
Bios
Tam
Study
responded
ter
3.25
on-line
wild
2.75
greater,
##BL
##West
errors,
debt/
(2.
but,
consultants,
Trac
##rix
manual
warm
EMS
Thermo
PN
com
600,000
(me
##ston
wheel
##UN
##earnings
##coming
##ark
guaranteed,
Executives
##din
stations,
##O's
invalid
Zimmer
managers,
drink
##orn
ramp-up
Y2K
ph
Choice
##lk
Traditional
Mead
INS
terminations
##-per
exploit
##pho
Response
mandate
engages
##ump
0.8%
6.2%
failure,
reti
'07
constrain
guarantors
##ense
biosimilar
25,000
##cks
modular
graph
abnormal
Ciena
##-end
Golden
leaves
##ech
##K's
##NN
premium,
avoiding
Trea
HMO
Supplies
materialize
land,
SPI
appeared
15.2
LS
matched
non-exclusive
argument
three,
balloon
117
##/10
proportional
Lowe's
D&
Lot
Default
Disclosures:
FORWARD-LOOKING
##rem
KEY
declines,
Enco
Pepsi
Clo
attractively
reflection
##Rs
guidelines,
forfeiture
stimulus
Ton
waivers
Nan
provisional
Existing
(Toronto)
disorders
Sales,
[inaudible]
JA
ownership,
"N
Heart
##pose
##cost
They're
Deere
##ness,
Rei
populations
Volumes
appearances
Years
##ection
Oâ
Olive
zones
(si
reforms
Subscription
Arm
supplemented
164
Hon
AFFO
risen
stu
employing
##arin
Monthly
mobility
##iar
radiation
H2
(b
consequence
gain,
Remain
encourages
Site
Inflation
HU
##backs
arthritis
Tree
out-
##l.
unrestricted
reassess
BLA
(particularly
sensor
##rth
##Sales
171
COO
##N-
##fact
roles
##ening
##rf
101.
cancelled
HVAC
tow
computation
NA:
Throughout
##-wide
expects,
Lewis
##Market
##liti
23.5
Foot
ski
shipments,
denied
restricting
contacting
tailwind
##ining
offsets
##HC
develops,
things:
NG
AAA
Prop
##CD
plug
##ely
Bond
24.5
##home
MN
arbitrage
“S
i.e.
20.6
##terr
retiree
##spe
demo
college
sponsorship
progress,
18.5
Restrictions
(M)
beneficiaries
##uti
Huntington
##nia
Symbol
Household
##A's
U.K.,
##p,
crack
Programs
5.9%
downgrades
Method
NSC
compounded
##uni
0.60
15.6
FG
Bath
##rri
Transition
OTTI
proximity
FH
samples
answered
BSX
adjustable
downs
116
uptake
knows
##Ne
6.4%
##FSA
##ero
progressive
##@credit-suisse.com
##wards
dairy
20.2
year-to-year
FTC
pit
done,
##-su
front-end
20.4
173
gauge
Nation
ina
deco
##oz
##bert
##FP
focus,
1.50
mind,
HI
15.3
Rea
189
syndicated
Shanghai
Budget
unprecedented
acquisitions;
##ember
pin
Buy:
Subs
Mitchell
virtualization
DG
Trust,
installations
##ison
copies
Android
01
Their
geopolitical
##ales
Fu
15.7
dial
companies..
Bombay
formulations
unlike
##hare
PRE
##tide
towers
regarding,
##4-
8.
consequence,
2011E
correlated
Outperform;
Dubai:
124
##tam
##phone
174
##get
##sensitive
?E
Content
stretch
above-average
quarter-
dit
##ally,
allocating
Upgrade
ag
##aged
(0
##gle
##ener
##ication
Announce
Jud
Assets,
attend
##matic
isolation
affiliation
Website
notify
Anticipated
##Fr
mortgages,
NAS
Una
Profitability
announcing
##esh
CDO
##DO
Starting
statistically
Leo
solution,
resistance
Paragraph
mini
Walt
1.35
induce
##ngle
contrast,
(Q
limited,
FM
##umb
##-p
Leases
Fre
Rapid
misappropriation
##-40
leisure
interference
indentures
Licensing
20.3
Bin
criteria,
BlackRock
Atlanta
(P)
approximated
rede
Expand
inflection
FY06
1992,
##rman
##mble
Sch
##af
franchise,
cGMP
##-d
beating
Purchases
Merchandise
Sil
0.45
satisfies
nonp
##ulti
##cit
personally
sugar
STATEMENTS
##-bo
Enbrel
0.2%
Half
Success
LLP
interpret
office,
Impl
boat
America.
deck
##sign
(o
railroad
105.
routing
anybody
##nci
totally
UR
OTS
spo
allowance,
exchangeable
Town
Apparel
transplant
reimbursable
Weight:
meal
##LU
##yc
(Topic
Vista
valuing
##-lo
22.0
approving
Houston,
Director,
mainframe
"O
27.5
##/R
reported,
Mea
Genentech
NOL
##TU
Attorney
Associated
##-digit
##IF
rent,
##nt,
Mus
Russell
72%
##YSE
##rb
##by-
situations,
neighborhood
polymer
AMR
Vincent
ICE
reseller
activation
success,
discoveries
Defi
##teri
##nh
##ico
collectibility
Res
syndicate
destination
disseminates
WY
Flat
"t
hip
fight
alongside
##xp
ACS
0.22
tour
Cam
therein
charters
regulates
scenario,
Adjusting
##E's
##erce
15.8
ja
Hel
##sil
sorry
##tr
##ational
modem
report:
cha
IH
fr
AES
2,3
director,
15.1
Requirements
15,000
##scal
Sources:
water,
Conversion
Ala
names,
##front
##pital
40-
David,
upon,
Rx
salesforce
etc.)
187
who,
recreational
##-line
GPU
bro
payoff
"c
recon
Americas,
lenders,
(st
Vir
Bulletin
counties
existed
swaps,
refine
102.
10:00
trucking
transcript
Provider
2,5
(Co
##800
Certification:
proceeds,
analyst,
##UD
Ferr
Rated;
##/sh
injectable
##COM
Underperform;
##NTI
pri
##mas
Limited;
Pers
7.6%
footnote
ver
##power
##rre
Mary
queue
Lang
taxpayer
##rand
uncon
##zz
lifetime
Linux
Ob
Bhd
KR
strictly
supplements
##vers
conc
Hills
Mira
##value
##MB
##F)
Principles
rough
O&M
MAC
##del
##Di
non-securities-related
Longer
Rac
##member
naturally
Inde
exceptionally
##brand
DL
Tuc
cra
Foundation
Young
##sat
##mt
irregular
vest
ARS
non-bank
Taxes,
RIGHTS
FBR
##ivity
Ang
repeated
##5/
passive
Mu
(discount)/average
fourth-quarter
discounts,
declaration
fragrance
##ova
shops
Unaudited
asset-based
6.8%
##acc
knee
etc
Ever
##ows
powder
235
(vi)
Bottom
Rad
##west
Gor
Eu
Xi
##eld
stable,
temp
Cher
Gri
debt;
"u
Information,
Parker
##Me
secrets,
7.4%
intermediaries
##sâ
Remo
100.
operator,
Utah
deciding
exploratory
Ae
printer
authorizations
TOTAL
##AA
(20
176
6.1%
(AS
better-than-expected
Nordstrom
Lei
terrific
http://gm.db.com
Rockwell
(CO
##&T
##upt
4Q09
##pla
Anti-
J&J
1Q10
16.2
sector;
regulators,
##C-
first-quarter
##lian
##eti
lit
##spo
##nio
consultation
177
acquires
18-
softening
##rry
yes
FactSet,
categorized
##nate
loan-to-value
##gree
1933
##oss
##(TM)
NOT
Approval
Je
##pto
FactSet
Boy
Refining
##bine
unrest
recap
20.7
Oncology
supersede
industry-leading
Chicago,
Facebook
therapeutics
entrants
Nathan
peri
##URE
##lat
is:
20.8
103.
refineries
Firm's
viewing
##dence
non-b
SIG
reconciliations
gateway
21.6
auctions
non-comp
##xed
PNM
##Au
##uma
over-the-counter
Proprietary
(comp
"relevant
repurchasing
##cade
uncertain,
##y)
Council
1H
Bas
472
##Ms
McC
##gas
##kins
bank's
Amit
##inat
##date
Strat
Barnett
Char
Ends
##Sc
map
includes,
##djusted
LG
Joining
predictions
transitions
##erson
Sut
requesting
MAT
Levi
poli
mon
Crest
##oto
Examples
##ches
individuals,
abandonment
##qualified
183
15x
1.75
as:
Karen
muted
181
PG&E
validate
when,
stayed
(ne
needle
Institution
advertise
##Ro
collaborators,
budgeted
##GS
##ncies
factual
recession,
milk
Ted
##ylene
capital;
Altera
TG
ranks
quarter;
##Qua
##le,
symbol
look,
##ulation
Hem
7.1%
pleasure
Brook
advising
Tenet
##app
merger-related
plastics
104.
revenue-
2Q11
Log
##/W
##700
trim
COMM
worsen
21.3
Chubb
Legacy
##urn
##xo
Apollo
standard,
1.05
Memor
APS
##PO
##ega
Glass
iPod
Gateway
TDRs
Developments
7.2%
##/de
optimism
##boat
clinics
10-1
predictive
chose
151
appeals
Lexmark
Energy's
##hea
syn
##bot
##hra
##holder
##quit
amongst
Exe
1A,
3.50
replacements
Party
occasion
##-Ca
meth
##-only
marketer
0.9%
##-ne
conf
##Vs
operational,
courses
LLC.
facts,
affairs
Warburg
?D
touched
choices
administration,
##NC
User
Ty
##ete
Mass
##ected
insure
appliances
overdraft
Asia/Pacific
row
dismiss
##ised
all-in
Arkansas
16.4
Steve,
Stor
16.3
186
interior
11.5%
##lis
##cil
ASIC
thresholds
Standardized
Beck
Strategies
Mid-
reliability,
Question
Multi-
panels
Share-Based
73%
expended
nutritional
arrangement,
##Sta
consumed
Nat
Ship
announcements,
consumable
thorough
affected,
##umer
Pl
##ch,
Diversified
##-0.
park
ec
Caribbean
Continental
##SF
##rma
##bas
denial
##Includes
25%,
bucket
hurdle
178
Mark,
accessories,
16.6
(No
ADS
##W)
risk-free
##lls
Dallas
4:
##Fa
Reiterate
##-Pr
encompass
Sell:
price-
TX
30%,
uns
("the
Mumbai
182
0.00
(Me
sti
removing
MKM
##gers
##aro
XR
medicines
PP&E
21.2
disclosures..
filled
ed
beds
tax-equivalent
builders
underperformance
initiative,
Mine
indirect,
contacts
interaction
(unless
8-K,
hospitality
ethylene
##pu
16%,
hierarchy
solve
Bre
Jersey,
sales;
Associate
Sho
locally
MRI
##rgin
(ex-
##na,
##itz
##land,
competitively
warrants,
##feit
184
21.7
##is,
##nea
highway
##ruct
LL
?In
(e)
##very
ci
buy-
37.5
Ref
dioxide
self
##sÂ
Pit
Sing
##box
chemicals,
Seal
##sia
"P
##0%,
CFPB
##isa
Lev
(f
##DR
2020,
##ground
Lynch,
Citizens
##lett
Licensed
Codification
##rra
Trend
SSS
Rit
(y
##AB
SPL
21.4
##a's
filling
Previously,
Medicare,
Eastman
scheduling
##I-
Lockheed
?a
110.
Miss
1991
370
S&
COP
busy
##So
Efficiency
2H1
##comm
A3
##sales
substantive
ann
Search
Bull
(Ca
exercisable
Ara
##mia
##istr
##urg
im
Cingular
2/3
infant
tie
0.37
rigs,
Non-U.S.
principles,
selecting
terrorism,
DOJ
re-a
flavor
Indicator
##YS
##utral
depends,
scr
##isi
non-c
(Y
inaccurate
Assume
179
##IV
SIC
##thy
Hut
logos
7.3%
231
##tl
slide,
raises
tranche
forg
'13
Estimates.
##corp
businesses;
offline
dictate
Allo
arrange
drug,
Notes:
Dollars
20.9
##mpl
H1
6.9%
Dana
Music
Holl
##-to
Feb
Carr
##sor
surgeons
##'1
were:
7.7%
ten-year
Pre-Tax
Eaton
EB
Denver
earn-out
demonstration
##!
##/U
##band
risk/reward
earnings..
conversation
##t.
Print
establish,
##tas
JCP
decision,
franchisee
##sell
transc
EMA
##err
##unch
databases
growth..
##900
Place,
CrÃ
##r)
surveys
withdrawn
therapy,
programs;
ill
##com,
Safeway
Decision
Resort
9.8%
compressor
Gre
discontinuation
pressured
Lien
##ract
Calculation
Fri
spa
off-s
Subsidiary
16.7
(subject
##hand
##opi
0.24
exploration,
Chesapeake
##ANCE
Less:
Opt
Company.
F0
Dealer
schedule,
Joel
8.2%
ret
740
Dick
##bar
collection,
##-week
theft
BV
ADM
0.19
sell-
60-
Corresponds
K-
prosecution
holidays
150.0
(so
Acquisition,
unions
##ologi
E&
IGT
Warrant
15.9
##HO
Sandy
west
administrative,
biologic
##b,
##-month
##riced
enzyme
##life
classifications
7.8%
vertically
PURPOSE
##wing
make,
exposes
##ines
phosphate
biotech
Vita
sulfur
adju
keeps
missing
21.1
(16
HF
"re
update,
large-scale
WL
##2/
understood
attending
##tate
Street's
##rgi
repatriate
Pin
uncertainty,
clinically
Deal
##bbl
380
25.5
property-
bol
system:
##rar
branding
adults
##istic
servicer
id
0.21
##ators
predetermined
reserving
personalized
subcontract
lawfully
disclosed,
INC
##ui
##xis
Spain,
SAR
issuers,
##itiz
Hand
moment,
##OI
Cen
sli
propose
Af
2,9
Ground
consequently,
Likewise,
Hudson
traffic,
orthopedic
Separation
ge
telecommunication
##mel
prevented
RR
medium-term
Emerson
coverages
apps
Gla
69%
##Op
##WA
Ham
References
##r.
ideal
Carol
Cook
cushion
-10%
market-based
Present
##like
assesses
inf
##xc
Cli
third-quarter
Bau
pre-s
##-V
##lete
landlord
MF
Floor
2010)
quickly,
3Q11
mezzanine
##RB
##rid
127
Beauty
clarifies
benchmarks
Jane
Sh
Cu
##nke
instrumentation
##yer
maturities,
Mcf
10.0%
FICO
Ax
revaluation
homes,
RNA
Measurement
BellSouth
Award
specialists
further,
expression
Sn
supplying
SMB
0.23
26.5
Travelers
Optical
ly
##mos
alcohol
##dm
Tes
##An
TWC
##vid
Lia
Hold:
Applications
208
##lease
seal
##print
Advance
##'d
##yb
risk)
impr
rulemaking
callable
disappointment
proves
##ecti
Cent
fe
Fast
resorts
slip
##mbi
##thr
configuration
OPE
EPS.
SAN
I/
##T-
mirror
newbuild
consume
199
##tore
11:00
soybean
Track
forfeitures
bolster
Capacity
Jordan
SUBSIDIARIES
"Risk
Sin
'11
horizons,
MMcf
postpaid
library
Uncertainty
##AI
CCE
Gua
safeguard
245
##Bu
0.28
##sky
can,
1Q09
Gordon
Schlumberger
Tria
Parties
synergies,
##ower
mount
150,000
365
##Ve
Terminal
Roth
Corn
fleet,
##FY
Pack
Crown
rankings
Netherlands
Wilson
Kat
##Sh
co-manager
?Ma
McDonald
Merger,
listening
TT
overtime
turmoil
17%,
young
Outdoor
book-to-bill
CALL
Pinnacle
##tche
roadmap
crystal
shi
qualifications
wondering,
subsidies
Bankâ
respectively;
foundries
8th
##grading
P&G
Halliburton
Mgmt
FTE
##nc
##tn
##dder
Army
factor,
Expedia
Characteristics
##perat
?P
failing
0.27
##&D
Satellite
(one
correct,
premises
methodology,
wonderful
onetime
##@rbccm.com
GN
Altria
thereunder
##iste
indefinitely
negative,
Nic
purely
##eon
Easter
Tellabs
##hem
salesperson
Sm
##Ja
HOLT
combat
##usi
##ters
22.3
fault
Virtual
Medco
##ater
##O-
##sses
SOP
Originat
MMB
##R.
Stea
##ve,
explicit
21.8
underwrite
Bad
threatened
distressed
administer
ur
prohibiting
same-
##lay
labeling,
voluntarily
end-to-end
matured
(ph)
(O):
overs
skill
1980
(la
interrupt
deli
MANAGEMENTâ
GICS
recalls
45,
##osis
Lip
Pakistan
##average
randomized
Slo
Reinvestment
Notwithstanding
##Da
Poland
biologics
officials
Stone
##uk
conservatively
Compl
group's
incidental
162
Procter
##ge,
126
##ago
describes
Sheets
Mit
8.4%
##UL
##force
alignment
Controller
##-st
##disc
Airbus
Fit
illiquid
character
reconcile
•A
identify,
(3.
non-deductible
Stu
Commissioner
offs
turbine
impression
3,2
75.0
TB
Shareholder
##CK
##ivers
Chem
appraisals
138
71%
•our
enforceable
##/f
verify
Quest
##genic
merchandise,
observe
higher-margin
##er-
deny
Christmas
1Q12
Planning
attacks,
contributes
FMC
Longbow
##p.
public"
implants
Ore
##-plus
Imp
("M
related,
second-quarter
protective
##lif
##.0%
22.7
gear
##MD
##tera
imm
Collection
Allied
21.9
52-Week
prominent
deliverables
Step
Securitization
opioid
119
Committee,
Lin
Wunderlich
systematic
coal-fired
Conce
23.0
regime
##period
Networks,
##Qu
##list
those,
je
forest
Angeles
##nat
201
drilling,
Macau
well-capitalized
10/
Ass
(RO
reaffirmed
"g
Bon
##and-
consulting,
chartered
22.2
inspect
##/4
popularity
bet
##ANT
Fuji
Yo
roaming
Wild
preferences,
Prospect
10x
bre
Coach
positives
##EI
##sting
Start
##co,
Watch
jackup
KO
##dil
medication
74%
137
##esc
Roll
4.00
assets)
conduit
8.3%
##tif
ADRs
##iz
##with
Improved
Analyst,
suits
22.4
##wal
hotels,
Cleveland
78%
because,
interact
diagnosis
pronounced
Bos
salvage
Lawrence
Dynamics
anticipates,
Siebel
##ula
3.75
?RBC
##hed
tractors
adhere
##psy
Sr
##ada
UnitedHealth
Paris
##FL
Swi
chipset
##cious
geography
RATING
538
Cry
government-
We,
streamlining
doors
Shu
##tile
up-front
predict,
tea
debate
77%
supportive
intensify
Weak
"ma
technology-
lighter
Allegheny
pursued
continuity
Jennifer
##uto
filter
Hay
trip
Get
###
ABN
##OE
Supplemental
bea
clearances
Kroger
est.
...
(EEA):
Company-owned
notices
!
##ough
tube
storms
capturing
Twe
(Sell)
fare
Georgia,
##X)
computers,
Debt/
107.
pre-a
WC
injuries
##tern
##bell
authoritative
Epi
data.
transitional
ours,
tonnes
disorder
##cto
RES
Lan
pertain
##bal
retrofit
##tron
weakness,
clients.
authorize
##way,
##coa
Une
##last
22.1
##gr
acceptance,
seizure
sector..
confidence,
0.26
(h
"F
##'ll
WF
##grat
106.
(CA
launch,
(our
Laboratories,
Innovation
dealership
22.6
Autodesk
Franc
basis..
Frontier
Electro
##fies
HCA
-4
Praxair
TARP
200.0
ultra-
##LR
##los
dil
Little
deteriorated
##n.
teach
ice
rh
Islands
##rick
thrift
120.
Resi
206
ocean
speculation
Peru
report;
##play
425
chemotherapy
Conn
Angio
(Se
prof
KC
Cole
compatible
(or,
equi
dress
##vered
##cta
Voice
##ille
cluster
Scho
##arat
cou
0.32
Lazard
nation
Geoff
(rev
##z,
9.0%
(rep
Hewlett-Packard
rule,
"Item
Vis
Hershey
conserv
##Ac
universities
fax
##rupt
##teen
##TL
Dri
CER
cross-selling
Custom
Bat
##s")
Mill
Kas
1986,
##tional
Lat
accompanied
23.1
traders
##tract
accurate,
Original
passage
insurers,
bankruptcy,
##group
basin
Sure
1.20
Schering-Plough
optimized
134
40,000
supervised
Society
OLED
(Canada),
bunch
lasers
res
(Hold)
Ranking
semiconductors
buildings,
Aggregate
Montana
online,
AMC
Recently,
interconnection
Ticker
LTV
motors
##Y)
Cautious
Than
Rising
##H's
##cke
fan
##x-
Gab
reminder
22.8
bottom-line
##bou
finite
##[DATA\uTABLE\uREMOVED]
customs
Analytics
Ext
unregulated
multi-p
Brazil:
GSEs
kidney
coa
coincide
##tock
##late
Lowering
129
(used
hike
MDT
24.0
Downside
boom
styles
Meaningful
Continue
opportunistically
cu
##ific
##igo
##-en
##nical
present,
BF
funeral
clients*
Louisiana,
(Taiwan)
handling,
camera
FY05
3,1
WTI
segmentÂ
Prem
0.75
inn
Burlington
Addi
##tta
predicated
flexibility,
##-pro
unmet
arena
Comerica
REVENUE
Miami
YEAR
149
pur
2nd
run-rate
Refers
##kle
marginally
##yte
##pid
265
##eth
Metrics
occasionally
##page
spine
##riti
convention
##bury
response,
Dur
Caris
Turn
##imp
(s
##OU
feet,
replicate
Lit
##yme
non-compliance
articles
2016-0
soup
infections
highlighting
Indonesia,
Harry
Enhance
##ering
##INT
citizen
COM
115.
seats
tap
Meta
Agilent
comm
quotation
?This
##lee
##pli
granular
Pioneer
##turn
##er's
##u,
bel
##-back
##-ex
##oh
Constellation
12/
glucose
Fan
federally
##nis
##d.
Wireline
Bus
forth,
Takeda
Kan
IBM's
Whit
##stor
Emb
##buster
workflow
dist
Near
##ndo
unprofitable
Unc
complaints
Taipei
Roberts
congratulations
420
VIEs
##wei
sanctions,
(7)
surprises
Barr
##RG
(15
vacant
salt
##.d
Document
238
swi
(per
##dem
limits,
##ull
trials;
##product
##-Ba
VAR
76%
damage,
5.00
##ava
##utic
irre
23.4
Ree
##-21
amortizing
NRC
ecosystem
Bard
Hope
##pra
Apple's
historically,
dosage
Ontario,
Statistics
Edge
cur
##quent
##sca
##pac
prep
Banking,
Relating
##to-m
servers,
NH
Chain
EG
Index,
Mini
("P
Christian
Zh
owned,
##nga
introductions,
##eet
##inguish
##nol
matter,
ps
closest
##att
record,
dre
Abbott's
CROs
##mall
mask
0.33
thousands)
2Q09
remuneration
assurance,
doubling
Sat
9/
Patterson
muscle
(17
contra
##dg
##dent
##el,
Navi
Hans
Qatar
cho
23.8
shortfalls
ste
Points
infringed
##bed
at-
fully-
##-inc
Sempra
Pea
Supervision
paid,
Commonwealth
thereon
##uted
##sea
##mps
marketers
Xilinx
(18
##00,000
##-me
Az
##-Te
214
narrowed
##t"
##e's
##core
deductibles
confirmation
Arb
Microsoft's
MK
speakers
warehouses
border
Sor
sense,
Union,
##df
presented,
incon
Hol
BBY
invasive
Instrument
cross-border
##ify
23.7
Gl
(due
Wy
##nera
Pot
##bio
##table
401(k)
Pronouncements
Bayer
quotes
##fund
Yet
##dant
Hyper
Costa
(before
fits
3-5
##zumab
VM
##ides
##gu
##Ri
cop
32.5
titanium
GSE
pro-forma
formally
Options,
Enron
##PH
recapture
Dam
educate
23.2
incorrect
Wei
state-of-the-art
##se,
700,000
##Pre
Robin
Apr
arr
exists,
Orlando
##STO
publicly-traded
Quad
cast
Competitors
##borne
##Je
83%
Firms
(21
23.3
NYMEX
##tant
uncommitted
##tility
27.2
advantageous
##icing
realign
labels
##dee
rain
Macro
(low
Hart
##ession
1.10
Finance,
(Lo
steel,
mandates
doctors
justified
Revlimid
6,000
outperforming
garner
Berg
8.6%
predicting
means,
vigorously
tax-free
sell-through
Doc
17.4
Mic
Berhad
IPO,
##igati
impressed
catastrophes
[DATA\uTABLE\uREMOVED\u3
##nagement
commentary,
services..
payors,
Description:
##-po
Cautionary
y/y,
##cru
earliest
abroad
PECO
Guy
billion)
Vascular
thus,
Thereâ
Occidental
##nsa
treaty
Mobility
Spending
tumors
##oth
153
Insider
23.6
circum
CRA
Business,
Sever
fluids
tactical
Taking
##'ve
##uts
##bul
report.
accessing
Dom
##ere
illegal
Superior
(defined
##will
##hour
Idea
Underlying
talented
hence
Coverage;
##rise
Profits
0.1%
stock..
Date.
healthcare,
follow-up,
7)
18%,
##ayment
crew
You've
Transport
8.7%
##dw
4Q,
Din
##nso
years)
enormous
hu
Program,
Spectrum
##sie
Il
##-for-
replaces
Crude
non-con
globally,
Rh
(continued)
community,
##harma
Rub
Readers
207
high-single
Service,
Disp
communities,
##uting
Xbox
VF
Interc
Les
volatile,
False
the,
SKUs
##ril
##ette
Rece
(201
##W's
liquidated
undersigned
broker-dealers
Definitions
Raj
RIC
Qualifie
Kurt
ox
Mun
Moore
Upper
collaborate
Hunt
##ables
flo
entail
capita
##inf
Titan
(n
Tysabri
realizations
Corporationâ
surprisingly
sil
Maria
trade-
##PP
airport
Mis
solid,
fifteen
Monte
(25
Sab
##-type
##Bi
##eral
##zu
##fect
##FG
accumulation
Industrials
nation's
##rell
##pper
500,
0.0%
Wr
Marsh
##WE
Telephone
Twi
##ision
800,000
##cash
certifying
Speciali
metaboli
##BB
Broadcast
Relationships
opposite
QT
2009)
3,3
##far
leaseback
artificial
Sei
IG
28.5
##'S
nonco
HL
2010E
0.70
molecules
##ndi
unified
##mpo
Cri
##lve
business-
warmer
Philippine
table,
Germany:
GW
##erg
contrary,
attach
elevat
und
upside,
##cli
Annualized
Patents
STATEMENT
cameras
##size
node
deduct
Stan
("N
IPG
Adviser
non-affiliated
equivalent)
where,
payer
Precision
DEFAULT
Malaysia:
Agricultural
##-19
##uter
##atory
population,
##pti
##Sec
pullback
##cco
Orange
CRT
unse
enr
oxygen
totals
Delphi
Bis
##orit
##mod
Dis
acre
violated
##nut
255
persistent
screens
##OG
##ulos
2024
ETF
years..
stoppages
Treatment
coke
##tol
##ror
approximates
Bookings
NBC
7.9%
##rdi
remedy
directional
committees
sleep
cab
video,
any)
categories:
metastatic
##oin
games,
NN
/-
?B
"In
##nve
unin
##ph
Reorganization
Bursa
time..
108.
tune
##pine
gentlemen
ratings:
inkjet
##rine
##owners
Newmont
NAIC
0.34
buyout
strikes
##cker
82%
authored
ine
DSP
(80
##income
rulings
EBV
RL:
investments;
Kimberly
##nor
3,4
24.4
##de,
duplicate
CASH
weak,
##kh
##clo
DISH
##ents
widen
trouble
##tment
CDS
honor
stream,
flowing
9.4%
##zyme
ONEOK
3Q09
remeasurement
console
0.80
##bili
C.V.,
reaches
##Prim
pol
intangibles,
cond
Index;
reposition
Parks
##vas
22.9
0.55
##rci
obtains
feasible
##fri
envision
Turkey,
109.
##bing
decision-making
Cuts
shares;
arrears
##ptic
Affecting
"T
Designated
yearÂ
##els
Regulated
cor
Rather,
8.1%
SHEET
refi
7/
States:
##yan
•C
Availability
Ei
00
Decrease
two-step
Animal
prom
##TX
attempted
Thailand:
8,000
TCF
avg
##new
Secur
wasnâ
injunction
VMware
Harrah's
TXN
Single
Morgan;
smoke
a.
person,
bra
##opti
cas
Gall
multiples,
motorcycle
weighting
advances,
##opa
taste
##urance
Raytheon
Rat
microprocessor
passing
malls
Eurodollar
##ffer
(415)
intensely
•re
“s
syndication
AK
batteries
Tampa
Export
risk..
emerged
back-end
Uses
depositors
Restaurants
Susan
Fun
##path
Square,
Fel
Schu
(th
unsafe
magazine
2Q10
uniquely
216
##ife
Oral
Month
intact
Together
afforded
predicts
Sim
##apa
##pes
##F-
##FR
Bcfe
outpace
5:00
Normalized
device,
##ede
sized
bankruptcies
HCP
custody,
Iraq
Arthur
##ov
Motion
(Continued)
dep
(phonetic)
contributors
period..
Paso
one-off
(Inc
pad
blue
Comment
24.2
headcount,
Gera
##ller
fund,
transitioned
"pr
(FD
##dan
Clorox
travel,
Factors,
CDs
##PD
##dging
VZ
(now
1B
24.9
ambiguities
##-ch
VL
Code,
FDIC-
estimate)
trailers
divestitures,
one-half
remember,
##zar
vital
tenants,
##shi
(U):
SPE
##pat
##tm
answers
abandon
##rou
Pharmacy
graduate
giga
ANALYST
agriculture
(x
##fle
Korean
##/O
##nac
Yan
##Va
NASCAR
##mont
COR
##ystem
facilitating
Cab
pharmaco
inception,
##Comm
'06
building,
Hamilton
Notably,
24.7
"Management's
step-up
Bart
##edi
prioritize
optic
##mma
securities)
4Q08
##AG
telling
JB
0.31
Bluegreen
##pon
Wayne
Disc
Advice
Which
##renc
spinal
Device
##pir
coast
"m
non-current
fleets
##tig
##CP
Pain
differentials
Measurements
.1
finishing
peso
seasonality,
hang
##lid
Improving
writedown
dealers,
Cong
Risk-
9.2%
postpone
##dt
Vel
tun
Batt
(Calgary)
("I
Danaher
Limit
##n)
provider,
##loss
month-
24.3
8.8%
momentum,
bounce
infectious
Venezuelan
##zza
##PERFORM
FP
Onco
met,
##mac
?Re
3Q10
hamper
Lam
Dr
facilitates
indexed
##g)
##'l
Nicol
##ove
32,
(AD
kits
##--w
SG&A,
##L.
attachment
##2M
insignificant
?M
LSI
24.6
lawsuits,
##-shar
restriction
marking
Thompson
##unded
lumpy
diamond
GB
throw
clo
##itis
##ouse
durable
0.36
Classi
histories
FDX
(although
racing
##eter
Lender
devoted
depreciable
##W,
##viv
##hs
investors;
Found
right-
short,
##-adjusted
“p
inject
Year-to-date
Dy
Holders
magn
equation
Boston,
##sho
Founded
24.1
parcel
notice,
Starwood
"expect
clauses
84%
garden
##-St
ceramic
stays
##scale
("J
column
##XP
Counter
ing
Cameron
"W
mid-point
affirmed
Whole
behavioral
Intelligence
INTC
für
9.3%
worry
pari
earns
285
illustrated
##place
##face
Ani
coil
Humira
itself,
defendant
0.38
##L)
organ
recom
Thursday,
##due
credit-
112.
##IZ
("U
antenna
##lude
parks
unfair
Kr
mortgage-related
Rowan
leak
(CS
Lux
tuition
Unrealized
triggering
##mbo
papers
Humphrey
medium-
BHC
consensus,
loading
Slow
RH
horizon,
NTM
Kl
Fall
subscribers,
Mart
issuer,
separated
list,
Wi-Fi
Compaq
##ways
releases,
reversi
Jeremy
Dell's
terminated,
##uali
##-22
Ama
developing,
UM
Right,
cheaper
24.8
bankers
5/
##rey
subsea
9.7%
money,
##inge
Acu
Sto
dampen
##rich
##sti
Subscribers
handful
DISCL
##2011
##ulate
##ange
Record
##M-
##rous
perceive
compute
DSOs
##rill
Primarily
##ature
Maine
9.6%
characteristics,
Italian
Canada:
tanks
Carnival
distinctive
##pin
Marketing,
renovations
epi
rei
##cons
correctly
intr
Lisa
Difficult
blow
admitted
CAS
Nike
news,
##xu
directive
Victoria
Arizona,
##@w
MET
Aranesp
Gillette
Equal
88%
Sponsor
undrawn
oc
COL
Quebec
Pressure
##than-
outpaced
LAN
Dividend/
African
98%
non-cancelable
custody
Eliminations
##stock
non-cli
international,
PBG
APAC
regard,
##stin
##ECT
Tex
Enrollment
##-wi
29.5
##SD
##/9
second-l
##otal
##Do
underwriting,
Amb
both,
assigns
Vic
promotion,
Legend:
##etic
thereto,
JDS
Constant
10036
Admi
Argentina,
calculation,
broadening
##-13
##SR
isnâ
stopped
31.5
BMC
dropping
7029
outr
##stan
into,
("E
images
fire,
capacities
east
##t)
(cons
Spa
deferrals
2Q,
cultural
0.29
difficulties,
##um,
oils
med
Charlie
intentional
Kno
Heinz
27.0
##def
IBC
##cas
scan
name,
pl
23.9
156
##yle
MSA
("JPM
baked
##py
lump
commercialized
Lor
AH
hin
sc
delta
NEW
thru
stockholdersÂ
Split
charging
recycled
hospice
PeopleSoft
reprice
on-t
five-
conservative,
Creative
views,
##uc
##log
inch
UNDER
219
end-market
designate
##rum
##@b
Nik
ADV
intermediary
cereal
##ufactur
##alu
tre
"we
BU
unencumbered
##-on-
pulling
##H)
Aff
21%,
widening
freeze
##rap
equity-based
##/lo
##es)
Instead,
(GAAP)
##ident
promptly
nec
##ttle
##erman
##ii)
equity-
Gamble
unbilled
liens,
Manhattan
ol
insider
##199
lap
##Ge
erode
Shr
fixed-income
(lo
##igu
revocation
viral
Ami
transferring
0.65
Speed
expense)
near-
disrupted
##gy
##gulatory
reaffirm
(un
Tro
##dic
##ll,
reg
Surface
suffering
inte
C2
graphic
overhaul
##arily
Hydro
3,6
28.0
IBM,
##gt
##ache
##/De
##prise
cyto
EQ
CMO
Peri
26.0
weekend
R&D,
halt
constraints,
stage,
yesterday's
Offer
##tted
209
IPL
precious
##nage
mitigating
digits,
OD
2008:
##itt
##cos
perceptions
monoclonal
12/31/
(N):
divisions,
Hot
tick
##l-
build-out
8.9%
##ipe
best-in-class
##apital
ext
##nsion
ment
reh
Textron
salespeople
Officers
ultra
III,
##jet
##order
##L-
evenly
##Res
Norway
Rede
Dutch
"in
111.
hires
Scr
##Ex
document,
Capitalized
non-g
consequently
##lot
2.25
136
disclaim
unfortunately
##IO
demanding
##gil
Resp
Quin
##zh
Copper
Consideration
Jim,
##NF
0.42
price-to-
Colin
Therapy
##-ca
2Q12
Ingr
##boe
compa
(no
speaking,
recur
460
##edic
whichever
breaking
13(a)
dozen
##tect
hepatitis
9.1%
Environment
##uro
##over-
CERTIFICATION
restart
matrix
gather
reservation
Trai
##oph
best-
3-Year
unplanned
clinic
Health,
Mission
FN
disposals
Pct
illness
Chad
clean-up
groundwater
to.
cal
##lose
##cur
440
##nics
Mah
jumped
##gne
##ester
133,
##ught
bri
##-Pa
"h
##ry,
flip
##oria
##Cor
##electronics
##bridge
Corre
assay
##K.
##eer
multic
footprint,
architectural
Rus
##aps
oxide
larger,
##ching
Stuart
Pop
Plastics
##GL
##UA
Guide
##eim
cart
registered/qualified
31st
##vert
##ifi
##insured
Non-Interest
##yers
outweigh
non-ma
25.6
25.4
##(a)
VS
##Fl
Transc
(su
86%
normalize
fast-
Keep
Appliance
Pali
If,
Emi
##eal
9.9%
Gregg
Therapeutic
##iation
Spread
field,
PFE
too,
viruses,
rebuild
.2
##rme
companies'
##rai
thirty
81%
coal,
0.25%
featuring
antagonist
##Ph
470
pal
390
allowable
okay,
remodel
personnel-related
struggling
##rce
'04
229
4,5
infl
##andi
Labs
ESP
1934
precedent
disclosing
3,0
(non-
Alternative
##OD
?0
ways,
controller
compen
Contingent
proactively
locked
Exposure
publishers
##cial
34.5
rate)
era
##98,
(40
##CAL
affiliates;
Urban
players,
switched
inflow
25.3
Mari
Pacific)
Double
Synovus
Dill
Tire
TY
TJX
disagree
##RON
##iling
(0)20
EOP
##Sur
imposing
fossil
737
Edit
##tiva
(Bra
##ptive
Along
notwithstanding
disallow
participates
Marketplace
##fla
XM
coordinate
##half
intelligent
26.4
##99,
##arge
##bea
orderly
arter
sales),
invests
reval
250.0
##IST
visitors
Projected
##NR
sun
medium-sized
AstraZeneca
26.7
##finit
##trop
sla
reinsurer
DeVry
Court,
Atlanta,
bag
Fab
##Share
lessen
211
##-an
252
cooperation
predictability;
(000
##italiz
##Total
##evel
non-o
##evi
Europe;
add-on
no-
Flu
##tur
Compu
##YN
conversion,
Dover
degree,
Rou
##rig
allowances,
##plus
company;
Aug
##Es
Goodyear
##iv
Still,
Ratings/IB
financings,
2011)
sp
Thus
Stores,
Task
third,
facilities;
Bancshares
Aflac
Wolf
drawing
compil
asset/liability
Detroit
ben
##KS
year-end,
Neo
##comp
##ook
distract
25.7
##-point
vacancy
jury
recombinant
##mmi
##equent
fort
DES
occupancy,
(pa
non-residential
coordination
yr
detail,
back-
Postretirement
##-ins
rationale
WSI
##on's
semi-annually
##oration
WB
IBNR
DRI
1,200
##bia
loans)
##ressi
Payroll
Becton
sum-of-the-parts
revisit
##/di
##urrent
##Per
##ffi
deposited
centered
25.2
unobservable
af
##-bi
##cquisition
slightly,
mar
Held
13.5%
classic
Unknown
##enci
paydown
obst
del
##2012
Membership
High-
##its
occurred,
chi
Rocky
stents
?20
##reco
Walmart
25.1
4-5
1.30
4Q0
Unconsolidated
Surp
bur
Yahoo
##t's
##rior
Lenn
##-as
Autom
arms
Clar
repr
thirty-nine
sub-prime
##berry
3Q,
26.3
che
26.2
Operation
Combinations
fracture
2014-09
coated
##Book
##sal
Experience
##pel
Carter
companion
B,
plane
##Mat
timeshare
"anticipate
Members
##hic
46,
##rsi
edited
wholesaler
hazards
##hon
minimizing
McG
Gib
##cts
promised
Spirit
rating..
founder
Mean
##-t
tweak
AMG
##Wh
##where
endorsed
end-users
##PU
unl
WMT
147
(ROE)
interactions
dia
(whe
Benjamin
Sands
3rd
certifies,
Int'l
("R
##oft
yourself
sim
RECENT
##hai
Color
30.5
unp
supervis
##oce
113.
dra
##war
##ompany
securities;
##ctions
Lipitor
all-time
Heartland
##building
filtration
One-
Moderate
(Asia
ATI
company-operated
Microsoft,
##boro
4Q03
GEC
##roc
professionals,
baby
USB
##dow
announced,
Sar
subcontractor
Networking
routes
##char
Medic
BankÂ
investigations,
Performer
Orleans
##/Other
national,
##SB
sales.
mn
##vision
iso
Francisco,
Conver
Yields
RAI
Covidien
indications,
Rio
deleveraging
##lling
distill
independence
brain
Chg
820
##capital
25.8
Mail
disproportionately
Proposed
Rid
outlays
Stein
tru
CTS
reme
injunctions
Griffin
8:
redundant
val
213
PCA
26.6
217
breakout
##Pri
issuance,
##gur
Const
research:
disruptions,
Golf
guarantees,
norm
Midland
revenues),
noncompliance
handheld
4.50
222
non-u
lessor
budget,
##quisition
men's
peg
coating
(v
##pot
##books
("G
##egment
expirations
Division,
presum
Beat
Nicholas
Termination
##poli
2,500
refractory
3,7
2-3
##-c
##cfe
innovate
admission
Pier
Hedge
repurchase,
reca
"w
laundering
Hold/Neutral
##lom
turb
rider
Letâ
AZ
##dro
##-Re
respectively..
##quired
60.0
moderating
##-Cap
leadership,
Olympic
Central,
##see
tan
MER
##chip
Av
income)
ven
Prec
ports
##mus
##ders
generator
##PM
Subscriber
speaks
floors
conclusion,
Roh
?Co
Clearly
0.62
##hole
manageable
Sid
require,
Corrupt
dys
re-d
outline
SER
fem
disapp
##com/
15(d)
##harge
movies
weren't
##sd
locate
levers
(Ex
Purchaser
PDP
##phr
•i
outl
GSM
Ale
pair
Score
##tos
300.0
YE
Dor
19%,
Receipt
36.5
lessee
invent
Pound
(MAS)
##Med
##range
##censing
infr
##olo
post-retirement
qtr
websites,
market..
temperatures
NPAs
•l
WH
Later
CHF
(MM)
##rofit
26.1
provisioning
factories
Pres
2025
everyday
RATE
Communication
##oro
trust,
DX
(Income)
##fir
lip
legi
(4.
##paid
casinos
RFP
430
Certainly
##laim
eleven
##nning
Legislation
pre-p
“A
scientists
habitually
fluctuates
##/201
L.P.,
BDC
enacted,
Next,
NAREIT
##GN
spreads,
TXU
Personnel
Columbus
##yla
fish
##rv
net-
ALLL
##gio
tens
RESEARCH
Valores
dominated
ruled
Eff
##@cariscompany.com
catheter
##av
87%
w/
battle
Trustee,
conce
cause,
M&T
Certificate
TiO2
(mil
Im
prohibition
Facts
lows
high-te
Mountains
315
99%
##uar
lastly
Knight
##ofi
##borati
1.40
non-strategic
gri
Noncontrolling
*N
mod
runoff
undelivered
Between
Walgreens
tro
VaR
##uct
incentives,
assemblies
ADI
non-securities
“Co
claim,
mailing
transaction-
Broadway,
##/3
##AX
chlori
absorbed
Ot
152
incredibly
Interstate
Colorado,
##bet
ren
2002.
potash
compensatory
Wyoming
Had
Expe
1.45
•s
submissions
adjustment,
Prescription
##orial
##hap
218
26.8
0.43
##Q1
Separately,
apologize
referrals
nona
F4Q
ICs
accidents
Harv
Nap
221
##verage
consumer-
114.
collateraliz
25.9
neg
gy
capitalizes
Legend
canceled
REV
completions
PLD
0.39
##function
Power's
##ed)
Highl
##surance
Rand
differences,
Toys
Whi
##ACT
geno
##l)
hesita
UNREGISTERED
##tec
##oriented
##HE
116.
invalidated
Combi
32.0
##hing
northeast
"believe
integrators
Var
603
transparent
sides
Juan
79%
Meredith
236
Kel
solvency
##lita
12x
megawatt
##funded
(ra
Cup
(EP
##tac
##how
Wendy's
##-fr
IPC
authorizes
Brea
diseases,
din
##/l
##r's
Listed
##-rate
partnership,
##free
(18146-X)
in-license
##chu
resto
##hou
governments,
##fy
semi-
##peri
sure,
shy
Buck
cooki
##stal
##OV
tires
##GC
borrowers,
concert
Unif
Ec
lib
cholesterol
345
waived
companies.
KLA
##field,
capped
pacing
(al
##pend
plaintiff
grand
Oh
##Go
post-marketing
##-fu
depict
Ellis
232
sending
U.S.)
##rna
BY
##uta
relocated
pros
mid-single-digit
interfaces
Cast
variable-rate
Rice
27.3
##chem
##Div
##jor
chipsets
year-to-date,
10.2%
jeopardize
year-
Find
index,
##spec
evaluation,
direct-to-consumer
LY
##bee
Agri
##-through
principal,
##sharing
ins
Janus
terminates
92%
##pping
layers
##-mo
##smi
0.48
139
##mmer
SUMMARY
vulnerability
F&
Brean
prices;
well-d
•e
instrument,
mergers,
##-1.
refusal
Accenture
Provide
ISI
50%,
blade
quarterâ
Sweden
##vate
'10
expedit
ND
##9/
##owi
persons,
knowingly
late-stage
480
originator
##R-
'0
##sw
1H0
Off:
2015-
gla
Ladenburg
toy
AO
JSE
1.65
McD
0.41
##Sp
##IEN
Year-over-year
29.0
Kent
##IES
Conditions
##roduct
##-15
##las
##-K
##hil
ORCL
(5),
CapEx,
destruction
##works
abbreviation
www.s
intends,
##re,
Alternatively,
tolerability
Avenue
monitoring,
##pert
translation,
Haynesville
##/mi
fear
capability,
TF
505
Sau
##mond
spend,
117.
nons
engines,
##NY
##lse
signature
##UAL
33,
Bai
##/Share
##lock
disclaims
0.44
##te,
##iat
##conomic
##roll
documents,
arg
OperationsÂ
LOW
defaulted
changed,
low-single
unan
dock
accord
D.A.
Canada;
##cla
10.3%
##-store
adopted,
233
##VER
principals
Firm,
Portland
ITW
Operationsâ
allocable
developed,
Tol
CW
Institutions
Priority
"D
amounting
IDE
evening
allerg
##unda
stepped
knowledge,
discharges
non-h
Atlas
27.4
EPS)
##Car
deducted
corresponds
Shipments
Shield
0.90
revising
20x
COST
Mai
##-con
Taco
growing,
I:
soil
unsound
Couple
##oco
Janssen
manufactures,
Fabr
##ass
nutrition
Need
Exchange;
##a.
Ita
Coatings
##lco
##food
FY'
4Q04
##DEN
1.25%
farmers
Unresolved
Kerr
(Dec
ramps
cit
BJ
sublicense
abate
##-50
Ster
(Exp
multimedia
dayrates
##unc
Pool
Women
Senate
##wel
premise
##axi
475
PGE
Lum
links
antibiotic
Linear
gate
enrolling
tooling
permissible
const
Ple
rates),
Soliris
Julie
##/fi
category..
Ced
##-ac
##/Ma
Downgrade
sequence
rota
'14
Legg
Ade
##Medi
##Su
consideration,
228
##ado
Virgin
224
##le-
stra
overruns
##rent
withstand
##ffic
28.4
10.4%
Zu
Radian
website:
terminating
“F
##uff
M&
Hai
##Base
130.
Deep
cost-cutting
twenty-six
33.5
standardiz
hormone
prec
capitalizing
condensate
www.c
##@c
##fre
Laser
Collateral
item,
decades
Financiero
##orp
segmentâ
Unfortunately,
##sit
MoodyÂ
partnered
MRK
MCD
defect
assemble
##ucti
McKesson
Agreement)
point-of-sale
##yment
10.6%
##BU
##END
timelines
##ivate
9:00
Improvements
10b
breached
unvested
company-wide
##acti
34,
spi
effort,
1.12
QCOM
Thal
priv
##vable
rise,
Scha
soundness
OFF
(EBIT
NVIDIA
war,
concurrent
##Ls
VSOE
messages
##Bl
##Am
•The
Reynolds
##esa
persistency
facsimile
##tru
den
##put
##idat
BAN
'RL
Compass
Alb
##-Based
once-
##ean
##SU
conferences
263
growth)
six-
##turi
conditioning
##train
Cruise
Lowe
##termined
decelerating
PU
genomic
count,
cigarettes
presence,
bodes
45.0
1-800-
Amersham
voted
Non-performing
profitable,
currency)
##source
lagged
advertisements
##ï
indi
410
##Vision
reman
Seagate
Bud
##2.1
93%
Michigan,
##etin
auditors
Mitch
wo
##TP
##wit
Pete
asserting
Amy
rece
Break
##jur
apples
(Ne
Xcel
Effects
Davidson
734
Closed
##ante
newest
COULD
##equity
##JA
lev
##change
sweep
##lusive
railroads
##amin
##investment
implemented,
##nix
##UP
Adv
##xic
convinced
##BLE
Hou
Aon
pick-up
Cazenove
railcars
bir
##una
theatrical
AIG's
Remember
##-mi
##-14
"Morgan
pred
necessitate
Interest,
Chur
Exc
Ask
##lex
Morgan.
Hend
influenza
Mcfe
dominate
Properties,
Paul,
226
company.
Range:
resolving
6/
reveal
Div
##stical
modulat
carryforward
10.7%
OCC's
recoup
pop
parity
undi
retailing
uplift
##ots
condominium
Integra
##nite
realized,
precisely
0.47
cl
##lating
##eric
##center
sectors,
##8/
##elop
415
##-denominated
##vot
fluctuate,
##3/
##rim
partic
inflammatory
##wen
NY,
translating
second-
tw
##tg
Heath
##col
INDUSTR
118.
##Vo
contin
(incl
##tim
Factors"
Kaufman
rela
discount,
AMD's
##D-
##cular
ammonia
unc
moderated
##-Se
enthusiasm
EBITA
PRICE
Kn
education,
33.3
(CMA)
##ubl
GE's
761G
##ched
patch
##overs
platelet
Northrop
38.5
vol
delete
##pus
##audi
##gian
##-ta
distraction
crane
drought
NL
##zy
ep
27.7
7,000
274
reports.
Summit
Jabil
33.1
##Works
249
34.0
housekeeping
27.6
General:
Mexico:
605
§
Late
Pizza
aw
##imi
1b
"Fi
ramped
exhibited
Jeff,
##veni
Certainly,
2010-
ARE
voltage
salon
Analy
year.
underscore
scanner
he/she
##cont
Citibank
four-year
##anc
reduced,
non-de
?T
##ntl
##7/
river
Y-
Grainger
Distribut
smaller,
##wall
Reduce
2b
26.9
##sale
yesterday,
acc
##-value
zoning
assertion
(CVM)
##sbur
Siemens
##-inte
Abra
##c.
Botox
Homebuilding
Sie
break-
royalties,
allo
##ateral
book,
1/3
Grow
##giv
Marl
restricts
Request
3,8
##e:
Penney
##Chi
##irm
parcels
Eng
##OK
##TER
D:
sizeable
500.
##Exc
geological
Mobiliarios
Webster
reluctant
##WC
off-label
non-pa
Ry
##nin
Build
DEVELOPMENT
alternatively,
##/y
handled
Maryland,
THREE
INB
##oard
opposition
currently,
quicker
(ad
##ience
0.46
##lerat
ster
Simmons
“C
##ta,
1Q05
##-like
27.8
waters
Singapore)
##riz
Kal
4.25
33.0
94%
long-standing
pa
Management),
Biologic
likely,
EPO
##init
1985
##pore
Comps
NON
LTL
28.6
refocus
##iab
28.3
##oor
Adj
finalize
##JE
##you
##ques
Reali
beyond,
usage,
Summer
BMY
entitlement
TSX
Ongoing
119.
rheumatoid
##-ha
Salt
Earning
234
KA
1Q04
(company-type)
Nig
279
Yr
##k.com
##ble,
##acity
##eci
1585
##Represents
foster
COMPARED
Peters
##SION
Definition
Delays
227
Comissao
vari
offset,
##ypical
##gement
##Cont
entr
economists
TH
610
##ly-
headings
dialogue
##5-1
##uci
Baltimore
HP's
##olar
Newspaper
Acquir
(tra
Zyprexa
subsidy
Administration,
Darden
cybersecurity
Jac
qualifies
ink
pause
swings
lin
Exit
Ethics
Initiation
1Q03
mid-200
Snap
trailer
biop
##sus
Semiconductors
Likely
##itability
leverages
Sci
Govern
Tha
renegotiation
##,500
literally
colo
355
Mono
furnace
##anol
companies/industries
Kor
near-term,
##uate
Die
awaiting
MLP
##BT
undisclosed
Egypt
AAJ321)
knowing
disse
oversupply
dispar
##emb
reference,
##inu
(Pr
##fire
##athe
choosing
commodities,
premature
Cul
##iate
(-1
suppress
highs
Fro
tanker
connecting
Desktop
juice
##dul
Morgan)
123.
charges)
Tun
Massachusetts,
Diego
Riley
suspensions
##rbo
exacerbated
Eb
tracked
##SH
Ev
##tiv
vic
ASB
##-to-ma
Alliant
equipped
Managers
FB
implementation,
Trustmark
Additionally
Plat
go-to-market
Karachi
199405335R]
(E)
to-date
arriv
Underperform:
assembled
stea
##standing
multip
backing
evidence,
Demo
##vio
privileges
ass
lower-than-expected
alleviate
Fahad
1991,
Cl
##pecial
lifting
dispensing
##trans
Austin
##nee
Reduced
non-pro
carload
C1
27.1
35.5
1984
(vi
obtained,
TECO
Games
##T.
quarter-end
12month
0.52
##ising
223
Price:
##4/
##yield
I-
Herb
##fic
Leerink
thr
PRODUCTS
##etitive
subordinate
logical
doing,
##--th
BMS
Hawk
AT&T,
##rial
A,
Make
97%
(De
Cris
part-time
##S'
tickets
American,
##-pr
revol
formulate
business..
Lyon
##quire
##ngs
8:30
"Pr
##ude
##mpr
collar
Cheung
##some
non-compet
Resum
crush
Indonesia:
36,
##registered
superc
##lobal
##process
##agen
in)
(Pvt.)
##urrency
Compo
##eder
valuations,
##Ser
Serv
Hasbro
##bile
Montreal
enforceability
(shouhizei)
##ource
Firms:
stroke
KS
reside
##mand
Alc
Calendar
Reflects
##icit
Providi
FPK
##uiti
cotton
Blu
##bc
Unum
cabinet
##tting
##Ha
claiming
##mea
automate
WD
Productivity
(Ma
14x
##hri
##gna
Alic
stainless
cadence
Philippines:
fun
butt
##Ns
snack
simplifi
(kinsho)
True
Analytics.
Sac
16.5(a)
stocking
Hang
##hop
Abi
clinicians
Barrington
prior.)
hedges,
JPMSS
##urne
corro
airplane
##dol
mes
"ne
WITH
INT
28.8
2004)
Post-
CAPEX
No.:
##War
##/Y
novo
18-month
permits,
122.
##nsive
##nect
poultry
256
•changes
non-deposit
##m)
Alt
(Attention:
successfully,
RJ
Pent
validated
aggregates
##ORE
quote
McCa
barrier
arranging,
DBS
##-Ro
refra
Cord
40%,
##-wa
younger
no.
manufacturer,
FQ4
##arning
revoke
industry-specific
##sic
ALCO
preservation
60,000
sixth
NII
SUB
##ndr
television,
dev
##reat
##opening
unf
Dev
Americans
##sf
(JPMCB
quad
4/
Reb
ASS
resins
observations
Bill,
reclamation
Fried
##Á
ple
Polar
GENERAL
##-sta
Comb
headed
##rio
locality,
warranties,
takeaway
Laboratory
aims
HKEx
security/instrument
STJ
##-sh
Crane
supermarket
constructing
3-year
##Cha
Medicine
stag
theoretical
investment-grade
##omo
F-
duplicati
121.
capital-
##rad
##S's
##try
proliferation
bakery
drops
305
(AM
contaminated
(x)
##eng
##%.
Arabia:
##ublic
Wel
interest)
(Un
pawn
contingencies,
St
Dist
Evans
##Bs
hy
clients'
Cardio
Thera
Al-Faisaliyah
EBT
smelter
Wed
ARR
Bou
blank
##06,
cells,
##strat
seq
##arch
drinks
Tom,
##mmon
sch
28.1
##bid
toys
renegotiated
analyzes
##kat
“a
lower-cost
tip
trucks,
”)
defective
rentable
delayed,
Lenders
lottery
Intra
twenty-
suba
prohibitions
fall,
"l
##,000,000
deepen
##ntinu
fraud,
##uan
midst
##mag
PRI
1986
Owner
##four
lies
chas
28.7
28.2
zinc
T&
(ac
##ppa
tiered
##cam
##ythm
asset-
(exclu
##elle
gal
??
Medicaid,
breakthrough
billable
##-te
##wise
spur
microprocessors
charge-offs,
Mess
12-months
##rly
(JPMSS)
Billi
10.8%
1.60
Freeport
yard
http://www.morganmarkets.com
downsiz
##e/
coordinat
Idec
performance;
##cked
extensively
##HL
exempted
Unallocated
Erik
##organ
Survey
##11,
Value/
Fidelity
?C
reor
dimensions
cord
##gam
material)
amid
combination,
build-
improved,
##uous
decade,
##Sto
##gist
budgeting
ACT
non-qualif
##.k
##fort
(next
##ups
performances
Perhaps
##irs
HEI
Transla
Bros.
*For
av
Nelson
Traffic
##ggre
Oracle's
Cham
##insu
##nation
root
tubing
Pine
Defined
ARC
Paychex
##ipation
##o's
readiness
##lev
dri
“e
DV
grower
fluctuating
Plains
Additions
Sustain
obtain,
admin
##dre
san
Ireland,
##GF
##equi
##atil
recommendation(s)
dates,
treaties
year-earlier
tempered
static
Marketable
qui
home,
237
Ltd.;
Reimbursement
Gree
27.9
concurrently
Computing
mixed-
enforced
900,000
##track
dig
Maker
Temp
attestation
##bis
agenda
37,
295
scope,
object
##ppo
touris
lens
89%
Monitor
##through
FY04
##ccup
##ept
Kra
Asse
##raph
offered,
Seasonal
Od
Fli
Dallas,
(most
163
target..
KG
(SEBI
capitalized,
MCI
established,
tu
sequencing
##-mil
aspir
Indiana,
Kelle
legislature
Civil
31.0
##Y,
Vect
medications
Hug
30.1
tee
obs
ortho
140.
230675231/IN
##wner
scaling
##-for
Bun
packet
##oke
Regardless
Beverage
cater
deposit,
Cayman
nevertheless
FDA's
124.
attracted
Tiffany
exhibits
16-
constituted
cessation
(Ju
35-07079
##lman
self-insurance
Sensor
netting
##-he
modernization
Non-Investment
Rogers
Considering
Revised
Kon
DTV
"pro
Architectur
F1Q
workover
sampling
provision,
brokers,
##luted)
CPG
wash
UST
years;
##system
licensing,
GROUP
##quat
##ink
trail
wondered
navigate
enrollments
950
Factset
origin
ion
dismissed
Millions,
excuse
continual
Launch
Contact
Bone
sporting
##gulated
##gua
appealing
risky
Arra
barge
##iod
unpa
radar
intra-
(213)
##eca
unb
##EG
story,
'05
Social
disin
Warrants
Priced
3Q12
Chap
consequences,
"Co
spark
##gest
bind
declar
collaboration,
##ously
##TRA
leasing,
Alert
(Di
world-class
Ris
encompasses
ethane
“B
Ped
Nevada,
##estimat
reimbursement,
Machinery
HDD
##uent
APP
reo
high-c
##jan
FU
products)
Mb
Dilut
##wm
##RIS
Beth
11.6%
##-chan
ori
##Tr
##lst
Chrysler
less,
Inters
Emp
##inde
##made
Mason
Student
kitchen
dedicate
244
(5.
rights;
12,000
non-financial
Cut
13x
Risk/Reward
Inve
##metry
visiting
subset
Lou
29.9
Hep
structures,
FNM
logo
and.
Manu
96%
Dental
##MH
votes
implications,
##-cap
accommodation
##rta
UO
cry
Commodities
10.9%
##lant
company'
Age
equate
(AA
##/11
##lable
Outperform:
rate-
Act"),
corporate-
##TEL
##-market
10.1%
exert
programming,
##cating
competencies
start,
##lati
Newell
335
Vendor
(“C
EXC
29.2
in-force
stating
paid-in
172
##enz
turnkey
BALANCE
technically
telco
Defen
observation
Fas
##tero
Laura
Vent
minds
re-pric
##omic
ETP
Roy
Assur
dispatch
##versi
##ar,
##ESS
invoice
##6/
22%,
242
ash
##rh
investigating
##ege
29.6
direct-
(60
##mum
share..
##olu
##effe
##igent
Darren
##yw
##isco
STOCK
Wolfe
##sur
##ensus
converge
Underweight/Sell
Insight
##stro
cetera,
##uz
248
hydrogen
##basis
wound
##efin
missile
TiVo
IMAX
(less
nonetheless
4.75
Scot
##&G
##million
##kr
tomorrow
FCPA
##ogi
Workers
##ABLE
invite
TEL
##].
##mation
Suspend
alternatives,
Front
radi
FAA
##-ho
Ske
##lg
##MAN
##uat
so-called
env
Outsourcing
##dv
1.55
Package
##crati
overvalued
Shir
dual-
cancers
11.3%
##igi
Won
resilient
steer
"st
Cardiac
Jacobs
##10,
Actually,
speci
Tuesday,
lessees
##-do
##ray
cannibalization
drivers,
##-tax
##rite
37.0
##rock
##eak
diversifying
[MICA
##active
MedImmune
Katrina
##assi
syndrome
catalogs
refinement
programme
assessments,
##2.5
Harmon
##gri
(this
##orth
subjecti
##ross
##erage
Ante
houses,
high-growth
compact
bare
Sande
243
intend,
designer
29.3
##ngton
##idi
relationship,
253
##AGE
CEO;
Oxy
(AF
##kow
Detail
Depreciation,
exposures,
Shawn
135.
urge
tag
1.02
Sound
1987
signaling
##Cent
Analysis,
accu
OUT
##etra
29.7
destroy
LNC
cautiously
Graham
Brooks
Sus
FY0
##exa
109,
Graphics
microwave
3Q03
("SF
slated
Bob,
Th
narrowing
filters
decree
##ira
##ma,
settlements,
fabric
????
##ld,
externally
abilities
##isc
anyway
##KA
Netherlands,
Hampshire
Fiserv
performer
Bradley
##dman
misuse
Sub-Industry
Corporation;
Alr
11.2%
NW
ADRs,
Others
EMC's
scru
Development,
CAP
ic
forum
purchased,
Victor
metallurgical
2012)
percent)
advancement
E14
inappropriate
basis;
relinquish
remodels
ea
cycl
##tie
Buy/
##db
##thing
##ista
pioneer
##ein
phrases
Millennium
("B
##ensat
residential,
Path
##tti
Run
voice,
(generally
##/h
##osa
antigen
gas-fired
denominat
article
318
restrain
##ty,
##rade
.5
abu
Completion
##.00
displace
29.4
##6\uLINES]
##radi
##compa
Marco
##/pro
##ck,
sales-
FACTORS
Vin
dollar-
SVP
bundling
##A),
##appr
QS
Ald
sterling
jo
3B
##ending
Jes
333
dispositions,
Oxford
unconventional
##clos
hydrocarbon
##wich
arenâ
##-.
##Pu
authorizing
##sphere
budgetary
3,9
##Disclosure
resi
longterm
MODIFICATION
##bei
Gau
Annuity
##aba
seen,
1990s
Utica
respects
evolved
acet
Disclosures.
ExxonMobil
Eth
IRR
##rr
mutation
lengthen
##ural
ot
##muni
issuer(s)
FHN
Stri
##dged
Eg
Antonio
campuses
##luc
horsepower
Jul
Manager,
127.
exist,
Zy
##odo
##gard
##nable
Phe
LLY
chunk
Cliff
aesthetic
##pecifi
preparation,
MGE
product-
upturn
##ube
##tit
worsening
Apart
##icide
Pratt
great,
312
Living
Brandon
CK
Meri
LU
126.
##.s
BPO
minimally
agency,
##B-
Clai
##sig
Quot
Cru
##cid
Mot
14.5%
Guarantee
34.7
247
statutes,
algorithms
##alle
LTM
0.85
studios
investigator
Lock
Confi
38.0
##lh
##a)
11.1%
revenues..
##kk
##aft
##petu
ATMs
(Please
cand
(refer
revert
NOR
Transocean
reinsurance,
vis
underpin
inh
Nas
Hence,
ambitio
Cardiovascular
viewers
Typical
Sai
(Pty)
Non-co
beliefs,
FQ1
Rena
Patriot
postage
##tatin
i.e.,
##/Su
##nct
det
Visi
SOLAR
29.1
##prop
goal,
.3
31.2
Chris,
##/Co
##das
Alf
TAP
mb
chem
##-stage
then-
28.9
Dominic
Disposition
##-generat
Linda
##XT
witnessed
OEMs,
easing
Statutory
equaled
30.8
##nad
techniques,
(compared
Manufacturers
##rive
##aine
reversals
prudently
Alta
##lator
Merca
##PER
brewer
##ume
##media
saying,
##chro
Spen
43,
##urope
heavy-duty
dere
##2010
suited
(A)
lives,
VP,
35%,
VOI
Filmed
error,
hal
##IQ
Footnote
30.3
Concord
##abi
11-
share),
impairments,
##erge
in-depth
seeing,
##hes
appraised
deadline
11.4%
Cosmetic
renewing
viol
shares..
as-
##-focused
##ml
##iga
11.8%
spaces
pulmonary
Nucor
940
bacteria
technologies;
Ves
Trini
mid-s
175.
(10%
4th
EXPENSE
##CORP
##dine
##cht
pay,
OB
“Risk
operationally
veter
mortgage,
##Rx
Avonex
colla
##-cas
(by
Kirk
##dne
##Gr
##cqu
Determining
4,1
multiyear
NPV
29.8
convinc
##obile
Ashland
##sso
Prince
11.7%
apparently
##-res
Wheel
1Q,
conference,
ERISA
##ived
shows,
Pros
PTC
(especially
Amount
formulation,
egg
36.0
DEP
Combination
##mut
Swap
Individuals
HAR
Dub
31.3
TW
Beh
semi-annual
Christine
##margin
##lter
loans;
supplier,
##-18
Market,
##orma
wellness
Install
IDS
releasing
Scripts
entertainment,
Vie
Klein
##gie
Dickinson
##ntr
##fp
##URA
held-to-maturity
Words
Drop
(gain
confus
quo
ROT
Stanley.
Ranch
Hercules
##minate
phase-
##-Pi
tranches
progresses
Macy's
#2
email,
Europe:
##-foot
har
##indi
##dad
(St
##rain
##lica
hematolog
(Mar
INDENTURE
XTO
y/y)
backs
##ures
flooding
Electric,
one-month
Foodservice
Advances
##Ad
indexes,
Czech
thereafter,
stockholdersâ
substandard
3,5
(benefit)
sanction
speculate
hasnâ
##-Li
tariffs,
PX
many,
tightened
couldn't
Medical,
foreclosures
HAL
##ntia
electi
efficacy,
##vail
Initiating
post-clos
watche
Hea
##ked
ali
Concurrent
comb
11/
Polymer
##12,
##flo
##on)
point-
30.4
##cience
reagents
##fare
sight
credibility
wr
tam
1Q0
##gui
inbound
Operations"
##aza
gar
•p
a)
Tin
O/S
transforme
specified,
##IVE
commissione
30.2
comparisons,
##esse
?G
FROM
squeeze
mer
##CM
tasks
DDR
##div
Machine
Highest
unchanged,
Sequ
Cob
reconciles
ty
STAFF
planned,
CAM
Caremark
annum,
(“F
##watt
55,
non-l
##-ro
##lv
##hia
(SFAS
##-Me
clause
Signal
31.8
##ckl
Cle
privacy,
WCDMA
MHz
veterinary
Eno
##urring
unavailability
Jam
'03
Were
structuring
anemia
Kea
Es
possession
##-over-
KP
##tod
just,
B.V.
2007)
ast
##bab
truckload
##TAR
##terest
incurs
dece
Scan
1.07
reinstatement
Promotion
(mi
##tus
##ghbor
##ecu
onboard
functionality,
##vat
##bol
UNH
144A
they'll
shorter-term
Comme
##urt
line-
Lexapro
##sle
peaking
genes
firmly
##-y
30.6
authentication
residents,
Angel
curve,
least,
eliminations
##flex
ecommerce
(Mil
##sman
##UI
Implementation
management;
Brew
Underperform/
sands
0.51
##GT
accrues
Bha
"Hold"
incorrect,
diligently
Rese
##other
homebuilder
shallow
settling
kiosk
Manufacture
receiver
435
excitement
diagnosed
chassis
Wor
##Na
teams,
277
visibility,
(sa
IDT
##hill
Ran
Hunter
aged
128.
31.7
Enforcement
##-k
##C),
##rtu
instance
first-li
(pri
shoes
Sec
Consent
Christ
##uing
##ports
Downs
dens
competition;
##revi
(gro
sq
asphalt
Pos
Basin,
advertiser
Dea
Jessica
rebalanc
normaliz
assimilat
268
Gartner
##ssu
entitle
enhancements,
fortunate
Lind
(mm)
TVs
PCB
Alg
Close
Fabric
##nati
fibro
hydroelectric
Wein
SEGMENT
Columbia,
##GH
entirety,
Filing
Wednesday,
##gha
what,
##011
##tary
convergence
co-pro
##ease
##cond
LLLP
##nsu
surpass
Sprint's
Deliver
?W
##reen
Liz
COMPA
File
dem
Woods
003
transported
signings
lived
91%
30.7
SAC
PAT
Essential
Barb
disclosure,
"estimate
upscale
bps,
Coc
renegotiate
installation,
procedural
246
Distributions
##dio
##bil
##MENTA
GBP
workstation
taxes)
impu
entails
disbursement
Fig
Biosciences
Milli
Remi
##markets.com
installing
##efit
ear
shipyard
countries;
##owa
markets..
##eck
don
Catastrophe
##tho
##.pdf
##gm
climb
glad
yielded
pha
in-place
Avista
universe..
REL
fantastic
UNP
CIBC,
improving,
deleverage
CMC
##vern
Impe
short-term,
Clay
1x
lowers
Roman
##large
payroll,
hypo
##fel
Turkey
Thai
Branch;
##quis
Torchmark
Reproduction
web-based
Taiwan,
##HD
##ben
##rau
high-margin
HEL
##ymo
##ported
Power,
Canyon
##craft
athletic
0.54
FY1
(range
http://
Warehouse
Oper
Cognizant
ACH
##lem
1.04
computer-
Wall,
Andrea
spacing
eat
##BM
##opo
##i)
Oma
integrates
"M
provide,
probe
iS
1.03
##ometer
magazines
owner-o
Fen
ke
Reve
wages,
simplified
interventional
Inject
(“A
##Fs
modifying
##tage
##rga
?Royal
mid-cycle
2Q03
wise
##ctur
lands
Seasonality
stimulation
Scenario
##pect
Ecolab
technologically
Law,
deteriorate,
depression
sn
Cere
assignments
shot
Tub
Secret
studio
(Sa
underperformed
of.
eva
strengthens
recapitalization
picking,
##away
377
##GP
Complete
Soc
Lumi
sodium
Tool
VR
analyst.
early,
Exxon
3Q04
20.0%
##ald
ARI
Intr
sho
nas
technique
Wh
##icat
##uity
vessels,
##dif
Alexi
Evan
(through
FDIC,
dedication
intake
##bilities
subsystems
calculates
##vati
##ylo
Trefis
##Z)
##tua
##pse
##fte
seasons
public,
##ms,
expenses)
comps,
aerospace,
This,
##nded
FAS123R
CPI
unemployment,
JPMSL
INTE
(CR
Prove
Day,
254
O&
129.
FQ2
##sense
tor
curious,
Recover
repos
ultimately,
Body
eCommerce
craft
(JPMSL)
LH
Successful
##/12
##vascular
Glu
Norwe
Kronos
##itted
##ogic
Eri
##bbe
(us
##cott
relo
Lists
sync
1.88
(Ame
UL
##V's
##upp
deconsolidation
Chu
progressed
bidder
241
nond
##Ts
manager,
wheat
segregated
outcome,
“o
Sections
239
##acy
imper
earthquakes,
ang
theory
##tib
post-approval
##rget
##Fo
SK
environments,
Vertical
definite
happen,
##round
##metric
shareholdersÂ
##ww.
Fusion
prevalent
##take
Rowe
##d:
cost-re
brand-
##rans
anti-kickback
Kumar
##ngin
these,
retention,
factors..
##Cl
##arra
##rovi
##erve
Unf
lifecycle
Chro
Vers
Infl
reproduc
producers,
injunctive
FFO,
Bankers
##structur
66,
##erence
4Q02
Malaysia,
##vie
sensi
Queen's
PSA
Foods,
deviation
til
##MM,
eb
dispense
Luk
pu
inter-
re-in
our,
purported
##supp
258
4,2
“w
Oa
Ful
##?0%
upgrades,
newsprint
McM
##/Pr
##alize
Econom
##10%
accreditation
Guarantees
Cars
PPACA
31.6
271
weakest
mobiliz
##endum
##upl
predominately
REC
trade,
charitable
Pierre
Seg
Et
stri
impe
31.1
Lun
##call
Ato
events;
##yro
trademark,
##hos
nominat
“co
Ny
123,
##lands
pre-announce
enterprise,
General,
B&
fly
##s”
potent
Rhode
23%,
illustrate
successes
friendly
Sv
sale-leaseback
inhibiti
Blood
XOM
Gill
soften
curves
Accessing
incomplete
##clin
CBE
spun
Charlotte
Carlo
##zes
Vale
4,3
257
##Invest
##afe
##ings,
428
(“S
##/Ne
lackluster
nervous
Ib
episode
Ontario
studied
Sk
(disc
##bill
Bul
##ns,
##efe
##dition
##-r
132.
Oli
Learning
Ultimately,
Hur
##arr
##Spe
opex
launches,
##nist
THI
##MT
##rty
on-demand
32.2
ax
lawn
(U.S.
abandoned
explosion
congesti
Deals
Employer
collaborations,
unlock
44,
42,
##-Q
32.7
##Spa
##BP
globe
Earth
##-pa
Ep
REG
Seven
2004.
boats
ESA
reconstructi
IDA
Consi
bookings,
Ridge
##hydr
##agi
by-product
Protect
Shen
•O
recognized,
earth
Que
##/u
##/ex
##sted
additive
External
##Risk
2005.
##och
?w
##sl
Dal
##FCF
"St
appro
Wu
continues,
below),
JPMSL's
747
His
remarket
IE
##RR
Syno
##bus
closes
30.9
Retailing
Peak
Det
##ing.com
Military
655
##oduct
ring
##ella
cinema
APA
##G&A
12.4%
themes
Ey
##DP
organis
Invi
##lad
Fluor
##[DATA\uTABLE\uREMOVED][DATA\uTABLE\uREMOVED]
##ituti
frustrat
Cohen
on-premise
0.53
•In
Prim
Joan
COF
maintain,
(Fi
N.V.
##zor
(Ba
31.4
##utsch
computational
reliably
EC2Y
##ues
bleed
Mou
Fitzgerald
##siness
scalability
first-t
Ethan
NCR
sol
misconduct
Dream
rejection
multi-s
03
Truvada
Masco
DEL
trustees
allegedly
Granite
Complex
##ntion
system-
Mobil
Interested
##Q0
avi
“Item
organize
Pending
Category.
terminology
considerations,
TIF
Pep
251
Hollywood
Capti
KeyCorp
inquiry
prospectus,
pra
AX
(Str
rationalize
2/
"Con
indebtedness;
##kar
Hoo
575
Gallagher
12.3%
concentrat
Nar
##luding
alert
C&
12.6%
medical,
##TAI
mainstream
Network,
##osu
##lit
Cit
##colo
Xen
Sam's
mid-sized
Ern
##BN
•co
durability
agrees
##/cons
adherence
Devi
1.06
##zone
withheld
##-M
(assuming
hel
transmitt
Perry
2Q04
ILEC
emphasized
batch
flat-
Opti
resilienc
corporations,
pace,
mou
##endo
recessionary
##30%
items:
##sr
-5%
##&A)
##riva
262
Prepar
non-covered
##WR
MPSC
some,
employment,
Deutschland,
(FAS
##inl
empower
completion,
kids
discretion,
131.
##zine
##UV
persuasive
lymphoma
##gus
compliment
assays
##ety
32.4
presumably
peaked
VALU
revenue;
302
2006.
issuable
Cablevision
distributable
Sca
144,
soliciting
Sensitivity
grounds
(FCF),
##kor
##enn
ASO
##b.
velocity
35.9
ii
USDA
Hell
Biotechnology
thri
##ffiliate
mobile,
##-use
##as,
emissions,
acqui
Nati
Unusual
Yen
(IN
aero
mistake
delisted
business)
performance.
Esc
shutdowns
granted,
Employers
##signated
facult
##'t
context,
Investi
##sets
##ality
Discounted
(currently
##ulsion
SAI
manifest
de-lever
Schi
11.0%
0.50%
sh
Pacific,
##ONA
##vasive
electricity,
congr
defining
debt-to-capital
(d
transmission,
##Un
Resolut
5.75
furniture,
Infini
##dr
'sector
Actually
##Q)
Ens
Tranche
cont
Joshua
133.
hurricanes,
bak
Non-recurring
Kai
##nada
4,4
34.2
featured
Distribution,
advisors,
1/4
##GM
##niz
Gam
0.56
##onic
hurdles
##nig
Grace
##-bearing
##curit
Vu
complied
TEP
Avondale
desk
##erni
##dyne
Sullivan
Portab
Merce
33.8
0.58
unw
DVR
16x
##kl
FIRST
recurren
basically,
adjustable-rate
growth.
Neutral;
4Q05
(r
##mount
investigation,
RSU
gro
##OO
##-to-d
inexpensive
RESOURCES
11.9%
##ype
39.5
##orti
lever
grading
back-up
##urr
Remains
OPEB
estimated,
liquidation,
details,
540
##pulation
Berkshire
aggregation
BioS
Attributable
Nonrecurring
owners,
Windstream
Techno
favorable,
##exc
12.2%
REA
Projects
Cool
##titu
2%.
##live
Agriculture
##parti
##demand
quotas
Auction
intravenous
Hann
##yst
included:
rolls
Clari
retra
complicat
##eavo
Tea
1990,
1.08
##aneous
Articles
debt-
ITC
##Logi
takeaways
Paramount
##user
Iv
Iri
##oming
Elan
southeastern
branches,
appealed
Angeles,
software-
pooled
##otic
Pam
nonc
32.6
24%,
Kir
Declines
(it
vegetable
announcement,
Inge
stakeholders
Utilization
high-volume
ASM
resistant
Doubtful
Accumulat
(AL
##ilo
pacemaker
shrinking
Mid-Atlantic
(vii)
inde
outbreak
audit,
interfere
accom
Mona
realise
##class
cross-sell
charged-off
risk-reward
Amendments
12.7%
bottling
32.8
##Cli
##mun
##ined
##quare
mid-cap
skewed
Predecessor
completes
Maur
que
acknowledged
Fine
##lion
venues
Baa
energy-related
Bil
non-st
presumed
267
##rer
CCL
##5%)
##/Lo
5:
CONSOL
Arg
List.
Ear
##lity
##ggi
weather-related
play,
Views
Ultimate
##.c
brac
Temple
Friday,
FQ3
occurrences
tenure
"ho
##ccu
65,
Stage
##uss
##managed
(U)
mining,
Refr
33.6
Kmart
stories
Rein
##efficient
(8)
##LM
areas:
disco
highly-
triple-
##istered
pun
Obama
months'
experienced,
activat
Biotech
types,
exchange-traded
SCH
Across
(Associate)
inactive
VII
##Bea
sty
brick
BAR
##/research
ath
Reports,
##-16
TDR
(together
##mpho
##hma
##makers
Scott,
CONT
##forming
SoC
##OB
stati
##heim
pat
QSR
BAS
##RES
authorization,
Haz
Dres
(total
##-risk
pharmacokinetic
examined
264
##\u\u\u
##business
time;
Zel
Rico,
90,
Conse
dam
nearing
576,
mutually
accessory
transition,
##ware,
later,
Stand
259
spr
NR:
##QUI
Sumit
32.1
##volta
PMC
Bright
cardio
33.7
Incom
Amp
LV
##-date
##ization,
additives
Wang
301
##good
registrant
125.
(6.
##FORM
adoption,
Method:
Lay
reaccelerat
Chil
Develope
crediting
SAFE
GOM
##-09
##tings
##deli
cyclicality
costs.
Springs
embrace
0.95
##/do
##atch
(Mo
VC
suburban
agonist
266
rubber
NAC
##look
##abo
clothing
##Ed
##stati
##/se
airports
cata
Privacy
textile
##./
PFS
6.00
(22
##ntin
Insure
Compa
prote
estimates;
MON
diligence,
breaches,
anything,
Dubai,
constitute,
##.b
ft
alpha
Lau
Dua
##thor
##pas
Extra
##gul
non-r
##.e
luck
(do
##wire
##ter,
##-n
##hron
summer,
Sector:
8)
31.9
WR
12-1
##xil
##mith
st
low-t
advertisement,
##XX
crops
(past
##uraging
auditor
##uthorized
may,Â
Eis
cashflow
ADA
##LF
##party
##lmo
procurement,
archi
ESPN
##etiz
##sition
##dth
celebr
Bottl
##-branded
bars
Gala
Colo
15.5%
macro-economic
implementations
Mur
Aid
.4
Varian
##-be
##yage
well-known
Note,
##5-2
##cul
Semi
Self
##ono
##oic
unman
incorporated,
Sel
snap
respectively)
Chiron
(ba
significant),
REO
32.3
non-public
emp
odd
“N
imbalance
arguably
characterization
levered
involuntary
cogni
EME
##ando
adapte
##neg
omni
RJA
Cel
##sett
CIPF
5,3
##orily
##-than-
##yt
Castle
##ao
NOV
ï¿½
rendering
(5%
domiciled
12.8%
tracks
forego
"con
alone,
UI
##Bri
mixture
interest-only
##zol
##pport
##gnit
conscious
Soup
##egori
Renewable
Adve
gears
##inib
Explo
13.3%
Tyson
rotation
income/
##ush
Testing
replenishment
coordinated
Inp
##cis
rival
Plc
chat
resonat
STE
Mario
Avaya
##ra,
##duci
Epo
157,
##guard
##AV
insulate
(So
##bn,
gastro
560
##cour
##mploye
UG
##carb
CS,
shr
##ulin
39,
##GY
Catalyst
##flu
##edo
##dding
##‘
structurally
pill
isolated
Pharmacia
Enter
precipit
slows
/y
houses
Imm
##-Pac
promotions,
flex
Banking..
angio
Armstrong
recommending
considerations..
around,
rally
Ingersoll
Abb
##lue
newly-
2009-201
Tenant
1.85
President-
##terminat
complications
##POR
workplace
##MW
satisfying
Prev
##tandard
##dimen
Debt/E
geographies,
rod
##velopment
##Ou
desks
MISO
injury,
Gem
##td
million-
cam
##bec
extraction
Nonc
##ually
combustion
Anti-Kickback
Divest
12.0%
(previously
##dell
Wright
borrower,
"Note
16.5%
##Tax
##balance
await
preview
##teg
##icul
##culate
redefine
DW
noticeabl
Internationally,
##lated
remittance
##-J
Holt
##MG
##ey,
Overs
Indication
Centr
DTE
##rian
Catalysts
Investigation
SKU
##stimate
Buy)
revi
##Uni
##dom
Calc
##50,000
Portugal
##Not
rebounded
competitor,
QLogic
(decrease
QUARTER
misstatement
##LG
##hau
##U)
topical
retro
##gine
Sunoco
card,
pre-de
Eas
seasoned
dive
trait
shed
##fan
mac
employee,
5,5
##hase
draws
Million
Execution
pointing
##ICA
##ctiona
137.
##iment
##erb
40.
##nl
underestimate
entrance
wireless,
##El
##bm
CONTR
private-label
Ut
Barre
##-v
##stra
Gabelli
HON
##-of-c
appreciated
Normal
##gor
coc
(which,
##per-
##-Mo
##aries
participants,
literature
crisis,
Arnold
reso
5-6
200-
5.25
##QUE
Loan,
##bie
automobiles
Elizabeth
Governmental
Disclaimers
Bras
##ZE
Whitney
##ganic
benign
time-to-time
different,
Non-cash
Karl
Beta
scatter
##Gl
stacked
recorded,
phase,
GM's
pent
audiences
1987,
threaten
psoriasis
##kn
opens
Ado
##east
##sul
Brian,
cleaner
DEA
CLA
##VC
fold
500.0
##-80
moderation
ages
Children
Tenn
Seth
##cated
38.3
Alto
Relations,
recoveries,
Location
##NK
(loss),
Omnicom
##ifying
##sys
##],
reconsider
bore
prescribing
slu
ons
objective,
end-
@
skew
Shift
##Gu
##unte
percentage-of-completion
MGM
loyal
625
##ancing
(FI
competent
510
33.4
Extend
Lobster
Judge
underwriter
reap
Baby
291
1.80
##xpected
##glob
Cot
Charge-
expense;
Carlos
##aca
comment,
Kris
guar
actual,
##meti
NMR
Ps
COMPE
34.6
ADR's,
##/Se
##rement
reacting
radiolog
##.N
AMAT
##ridge
Explanatory
ISS
##ages
magnetic
auditing
##ryl
##producing
Aggressive
urgen
umbrella
Regis
founding
departments,
Know
##menta
exacerbat
##(R),
unfold
over,
Weisel
Theyâ
##Ce
revenue..
first-in
17.5%
##/le
##logic
double-blind
Jar
Cycle
(Con
##Q,
##emia
813
##All
##nology
("T
intrastate
PEP
145.
etc.
1989
ignore
##Str
lagging
##ories
##xan
1.70
##mpli
upwards
2x
Ox
0.49
29th
401
?the
BK
prol
Pittsburgh
1.00%
tort
curr
##.S.
spirits
yearly
shouldn't
(also
market)
detrimental
Ina
picks
Hew
##lord
##elling
Gia
b)
EW
consign
resid
(ann
repatriated
Wendy
##onics
slate
530
(earnings
(MS
40,
Repurchases
representatives,
Turnover
##gage
##tures
DESCRIPTION
Lauder
2Q05
Hispanic
##U.
oppo
topp
##5\uLINES]
Reha
##wave
##lyn
(India)
0.57
weighed
Minimum
##esta
overwhelm
notebooks
##han-
##TAS
host,
Borg
##from
phones,
Tul
tractor
compromised
##employer
tighten
##nce,
14th,
##pant
flow;
•f
identified,
Training
##Reg
12.1%
resum
Brocade
high-pr
decon
Nit
free-
Powder
Greene
299
##Dis
##wned
272
collapse
##unicat
Turbo
134.
##bac
##sn
apply,
Frit
submitting
limit,
reliant
##sset
##/serv
UNRESOLVED
DIY
##ript
supermarkets
products..
carryover
reins
mid-year
franc
Blend
supply-
rid
catch-up
abroad,
##total
requirement,
SIPC,
Communities
subli
50,
##unta
##llia
##ystems
##that
Rav
##digit
##6;
(FT
##toc
##-cr
##essa
Xy
Same-store
turbines
##w,
##kan
originates
Prep
Pr
go,
18x
TCE
##PSC
appoint
##l"
government-sponsored
Sche
Propo
OVER
##rative
35.3
##lite
##yx
psycho
9-1
##WN
bottlers
Lifesciences
Corporation’s
mute
WCM
EARNINGS
Dynegy
##ancy
261
increment
formations
6.25
Dil
markdown
collaborator
##pany
##liver
Bbl
Compara
UNI
relieve
##to-b
realisable
19(
##cord
liabilities;
discovery,
hat
Sco
ASSETS
unenforceable
33.9
TWX
##hat
diet
Fund,
##udit
sin
##bow
Zac
##2000
##hyl
Renew
Â§
"Ca
AT&T's
##andard
amplifie
lead-
strat
requires,
Genworth
##ubs
critically
Participant
THA
##law
##Stre
meantime,
Rom
##-La
million..
(Chi
##aj
options..
Produce
##Credit
##-buil
##marketing
Ker
34.3
exhibiti
FHA
ADT
34.8
constituti
hun
Joe,
synthesi
Lane
4,6
costly,
##IC)
Miles
MY
(Av
Owen
expectation,
Offered
endorsement
discriminat
Carp
35.4
##verin
EPC
Covered.
end-markets
Switzerland)
SEHK's
RadioShack
36.6
pandemic
AOCI
0.64
pollutants
Divers
##U,
##ycle
milestones,
278
cav
GF
##OX
forwards
imp
contradict
##NDA
Weighting
32.9
iT
Company;
##/v
##uco
deliberate
##psum
chargeback
AFG
ambula
CCA
AME
286
(PD
"Se
Fle
Statute
hits
##bag
divisional
136.
##G-
##mm,
held-for-sale
caught
##overnment
BRCM
##oint
wor
recommendation;
Maturity
vintage
converter
##ppe
##f,
Stac
it'll
Marg
##Ju
items)
Disclosure:
assortments
##rbi
CY12
34.4
Year-to-
##rve
##cyt
company)
worried
Cash,
Adoption
##5M
##dur
incent
gaps
cross-default
inducement
39.0
##olle
Barnes
##agement
Veter
Weakness
Cand
##-25
nucle
Brexit
Compound
##ONE
“Re
##haw
Benchmark
##yclin
requirements),
Neal
##itable
direction,
520
1.16
(DCF),
Cali
consortium
Ford's
Coh
Monday
##ntrol
[P
(AC
##stream
spoken
Spectra
##V.
##dies
thanks,
20-2
thick
hypertension
138.
sources:
##sci
copper,
36.4
4,7
34.1
CLEC
##to-c
Care,
##mmercial
##--Private),
Sanj
##gistered
Austria
##-ray
Oper-
encryption
35.6
##-growing
##nam
colder
33.2
Tale
##-or
##ork
tal
JS
##stand
Yeah
Brunswick
degradation
Spec
Thesis
DIRECTV
##factor
calculations,
Therefore
therm
##bon
##irat
##ether
Timing
majority-owned
defense,
5-10
grav
transient
division's
archive
##oq
Mes
influences
Terra
##elt
1.75%
stat
##oad
Billings
U.S.-
QUAL
Cos
southwest
##ssued
##nai
(expe
##osh
proportionately
longe
##Service
stal
Hawaiian
##eciat
coupons
##UE
##long
Restricted;
0.63
AGC
##-the-
Refin
(Analyst)
Sierra
SHARE
##istor
broker-dealer,
34.9
Pel
industry-
CET1
##alf
America's
##-De
warnings
Forms
##omb
interest-rate
involved,
Tribune
Reed
alumina
35.2
trib
Schwartz
Dodge
##creas
DIF
##icial
Lon
2009E
1,100
open,
hardl
##SCO
Zen
Touch
challenged,
Arts
35.7
##alys
curtailed
Disclosures,
?in
Google's
NetS
49(
NiSource
challenging,
##sar
Fal
deferring
upbeat
##tina
firewall
Vegas,
Bruyette
loads
activated
Bree
##DU
P&
Hec
Capst
informal
Greece
incredible
##-to-a
##-comp
##les,
##South
REMS
Irish
276
Dora
Tai
Drew
(24
concerns;
##chas
##ois
Spra
Ow
kilo
1Q06
preempt
Ascen
##-ba
Lynn
Akamai
ye
cool
deg
BankAtlantic
AbbVie
##ledge
understand,
Recr
Sug
Maca
JO
Equity.
Modifi
6.75
Dave,
counterparties,
contracts;
investors'
railcar
chrom
Substantial
##NYSE
143.
##yne
graft
dec
Matur
2013E
Relia
re-c
pea
Inspect
##/cas
##-00
low-p
##tini
fl
copyright,
Nomura
JCI
##RN
##read
repair,
287
Acquisitions,
##ppli
suffic
well-established
solidif
dele
Restr
NOW
##D's
Dyna
tons,
Vy
unspecified
additionally
##mill
biodiesel
Violation
("H
##nche
Plain
282
class,
geothermal
(their)
1978
##plo
post-s
gr
Bernard
##Pl
rob
288
"mo
posts
##aise
Extensi
Rational
Modernization
142.
stranded
Full-
Forti
##aut
Research's
Judgment
36.7
##onn
harmful
dissolution
Amazon.com
##n't
Payout
oil-
##eive
13.6%
##chai
(Bu
##dose
##00,
relocate
Groups
4QJ,
##iage
misleading
levels;
##cti
Integr
Und
##-price
AMP
?Ne
Plas
6:
##ln
wanting
##sville
##oter
four,
##aining
ability,
##ditional
Delaware,
##tek
Gras
Palo
Absolute
"no
Protocol
##hot
end-customer
multi-st
first-out
Por
##-Private),
designers
confusion
Covan
1500
##LX
self-re
above-m
##Fe
##orat
conversely,
13.4%
##ttr
##ced
Weis
##nett
##aga
co-develop
##XI
economies,
child
##ued
Nint
cr
cardholder
Procedure
provincial
##done
mainl
skills,
REM
vac
Salesforce
multiple-
accumulate
##reti
OSB
(cont
##stablish
Inte
roll-out
ut
inadvertent
Indemnity
Fid
Comverse
(Ja
##vt
points)
man-
institution's
30-year
##AY
CONS
Bes
reviews,
AFLAC
##ctic
simulat
Pil
51,
##stat
##HF
(S&P
asc
##owner
Cog
1.14
##keeping
equipment;
bip
(roughly
##operati
retrospectively
Income.
labs
price-to-book
Providen
##acr
Bristol
1.13
Railroad
##S),
##ceutical
syr
##mol
##etr
Krist
Established
##-manage
trended
Modest
##fli
believe,Â
273
Yi
##wed
[F
Loans,
wager
inor
Sunrise
reconciled
attended
YUM
##uty
retroactively
Fork
##arly
##.g
employees;
PK
30th,
13.7%
7,5
www.macquarie.com
referencing
##Ar
36.9
(adjusted
serve,
remarkable
0.61
purchasing,
313
reserve,
Wag
NSP
##downs
Substan
##udi
##mend
##-enabled
##moti
Hua
##nance
Absent
##NU
T-Mobile
##imit
moth
U.S.-based
Same-
BEN
researchers
geolog
Internet-based
##')
hearings
forming
283
11x
##het
snacks
non-t
##-term
Lands
##inta
?N
289
Wo
##esti
merit,
4000
3Q05
1Q08
repo
component,
favorite
FORM
Wis
"Business
Ericsson
##-Year
##Pla
##Ap
ethics
##EV
cosmetics
expect,â
##/Li
Reliance
Heli
(man
ABI
Consum
##NH
##ateg
Supplier
(CNMV)
justi
affordability
##valuat
##/st
rese
furnishings
credit-related
36.1
##mari
##bles
long-distance
inst
non-disc
Handl
passes
Jefferies,
HER
baseband
##inary
unacceptable
coastal
Finally
MPU
##ogy
Lori
Johnson,
Bir
"intend
conditione
##5.0
engineer
("D
##SIS
Cove
##expe
Goodrich
##mbl
subtract
##utili
Partnership,
##BITDA
##oso
Ace
##edia
##bla
institute
On-
##-gr
re-s
35.8
CDOs
quantified
nearest
Euro,
##hood
(end
Relief
1.18
elections
##(b)
##plate
period.
controllers
##Is
timberland
Sunday
cyber-attack
devi
litigation;
Section,
CREDIT
"I
##km
##gge
##eren
QC
##Sys
##press
47,
F/
hence,
comp,
37.2
##STARS
Nav
(rec
pipelines,
Identi
tack
Cushi
##derperform
##pons
Diabetes
Synth
4Q06
##et,
Change,
36.8
(Al
Chee
Tuesday
##erate
10%-
Cinema
Bloom
rejected
13.2%
1.17
##lab
oper
lim
35.1
4,0
##B/
caus
Shares;
##uin
Disruption
atr
transactions;
categoriz
##style
##invest
laundry
(ho
##TIVE
ki
cooler
55555
37.8
Freedom
(Su
customization
Intercon
A.M.
franchising
(ta
vacuum
WU
?L
fears
##geo
colorectal
Mac's
break-even
migrating
Wai
higher-than-expected
(TS
(USD)
Khan
expect,Â
Occu
37.4
value)
NAT
pre-c
drain
292
crucial
##ubm
##dar
Asia:
1.37
##/risks
##/As
##veri
Growth.
14.3%
mid-201
GEN
supposed
##rabl
yearend
optics
Different
SSB
EU,
Lanc
##rs.
radioactive
ana
Garr
soda
smoking
##.3%
RU
'15
##llat
Help
relations,
Michel
-6
(Kinsho)
Lora
DECEMBER
##fty
##dea
OUS
Lucas
pilots
##HP
ela
Schmi
0.00%
##urchase
##chin
•w
additions,
##represent
worker
form,
##rts
##quin
##rved
Michael,
##nticipate
Not-Rated/Hold
Interv
##-to-s
WFC
Lexi
Craig-Hallum
“P
Panama
specializing
disposing
ZI
mc
S.V.,
Assistant
##lain
Non-C
(he
##culat
Swe
polyethylene
ConocoPhillips
(comm
configure
##ke,
Marit
locomotive
Rosen
##nom
nm
##usch
##co's
BOL
17x
##1.5
##leen
##fis
##ferr
##-1,
9.
03-
table:
##echn
accomplishments
Scripps
cartridge
2011-0
affiliate,
Hess
inevitabl
stressed
emb
##KI
preannounce
"Th
descriptions
NCOs
##stu
materialize,
##.T
dw
Q4:
malfunction
Thesis:
MX
town
304
##uli
bln
##ende
##edient
lan
Village
Sli
Univision
Seng
configurations
##urb
ZA
##pher
complexities
UE
HHS
true-up
##Fin
shareholdersâ
Joy
Teles
SGA
certification,
Aluminum
encumb
##shot
##shop
Popula
depende
[In
were,
anti-takeover
##mote
terri
corrupt
Prol
unsubordinated
100M
##industry
slowdown,
12-Month
##gno
sm
Vinci
Governors
fre
enjoys
subtracting
conve
Coll
1.01
##yth
termination,
diag
##para
##clu
385
139.
##phy
##-q
diss
display,
bath
##enta
not-
jackups
0.68
MBNA
##reas
Poor's.
sw
income-
Unis
heavier
Penetration
accreted
Ski
160.
(ABN
mg/
##/Sa
##liminar
nomination
Diet
316
Tyler
Mul
saturat
environmentally
Excluded
##-class
"H
##thes
##mou
##hasi
37.9
corridor
noninterest-bearing
##ppi
Eco
crews
Introduc
##lative
faci
diabetic
JUNE
Deer
##hog
##---
necessity
expo
bow
Brit
SCS
##/market
Federation
•m
Companies"
##cepti
proposing
Brands,
##uv
Regula
##actic
Beijing
36.3
owe
##posi
LOAN
Biop
##Sense
comparables
Este
##abli
##G.
embark
winds
JD
##ically
Convention
LB
for-
##exp
billions
single-s
humans
1.09
##ope
##onth
REGULAT
worth,
reactions
Unip
Interbank
disa
Sharp
##cca
sidelines
Ic
##mul
##pet
Reflecting
##graphic
Container
hire,
transfer,
2003.
fraction
EVE
##otid
earned,
advancements
##GO
##st)
adve
Circu
rele
cross-c
“I
Estimate.
Refiner
customer’s
##perform,
rounding
##eration
value/
tin
##gly
##");
##-f
##ellat
##Advisor
##dential
client,
##y.
documented
##/i
refrigeration
Inactive
Mitsu
36.2
Domi
##Hu
Harvey
Discretionary
anticipate,â
##mode
13.8%
Physician
##each
re-evaluat
landing
group..
Lov
Liggett
Gui
interest-
Panel
Applying
##cci
Probably
500;
1,80
##TIN
##wle
##ogra
barges
Junior
##mers
rises
144.
avenue
41,
infringement,
Solution
Anthem
sca
protracted
##pm
##financ
attraction
Compr
ticke
achieved,
authority,
Allocation
deregulation
Lars
dislocation
Sap
##ars
off-pr
336
Incorporation
windows
routers
honest
CY11
Curtis
programmable
Ig
did,
Ras
ING
##VO
symp
Depl
(IBC)
lower-margin
##cc
elements,
##Exp
Jet
divide
EH
4,8
shippers
Seller
(23
LEA
proving
Minerals
HBO
CNS
1.90
##Mer
Updated
##rese
Aa
morning's
arbitrage,
*An
surpassed
Exce
believe,â
Investments,
##rua
LIBOR,
Scher
(cu
Furniture
outpacing
forget
calib
Calpine
8x
0.72
investor,
Interest:
After-tax
233742,
monotherapy
10-Q.
cream
stability,
appl
sat
friend
anticipate,Â
2011-
##-to-p
“b
ride
##gger
sued
pt
track,
slow-
12.9%
(AP
##illar
##Sco
200008434H),
strides
broadcaster
Inco
##olved
##mfor
corrections
conservatism
?Fundamental
boosting
Ult
Cape
slipped
Opportunities
##generating
##bush
Cleco
##me,
depr
"L
##DT
##rvati
PIK
##ér
Arrow
##ref
Momentum
Ener
subdivision
overhead,
Monitoring
1,000,000
Hyd
reactiv
269
casting
##Che
##.6%
chains,
0.66
(C):
index..
Park,
1.28
myself
Software,
Roughly
Benchmarks
##ersible
##pos
refrain
Walker
anti-d
stepping
(7.
##lde
illustrative
Royalties
Cir
Oklahoma,
citing
##Earnings
##-a-
##&S
fronts
Google,
16.7%
Rut
##clear
technology;
early-stage
NEX
1/
##arie
Holiday
##ysic
Exchanges
(I):
affl
SUN
shak
distributed,
CQ
##has
mic
cheese
back-to-school
aut
MIC
multi-t
illustrati
contents);
bonding
disclaimer
AXP
relevance
Regen
copyrights,
281
##ight,
Excellen
appliances,
extrapolat
deserves
contributions,
anal
777
Gel
##umin
Tennessee,
MEM
stockholders;
drills
##rdo
foremost
(20%
Reco
##chil
Sla
718
35,000
##roller
low-r
(BaFin);
OA
##kali
Oversight
(CM
Affairs
marker
Overweight/Buy
##15%
##-60
does,
##uriti
supply/demand
38.2
##tili
benefitted
attitude
##RGE
p.
SBIC
##am,
abbreviations:
fer
dead
Guard
37.6
##enda
differentiator
Marvel
##ribe
whi
sector.
impartial,
("CS")
##mission
##merica
Underweight..
##prov
Ph.D.
(li
pota
##word
carry-
Stark
Factory
pockets
form..
SEPTEMBER
Really
##vu
(known
Launched
pren
(le
(IR)
non-co
misappropriate
##olid
Sysco
##TIONS
##lth
elects
##phos
SVS--Subordinate
Printing
1.27
##NM
development;
Kali
CCU
37.7
Mt
collections,
Troy
fixed,
Aca
##ibu
(hi
##obe
Gr
Conv
Alt-A
segmentation
NVS--Non-Voting
##nish
placebo-controlled
Spea
Shipping
levels..
##-contr
##ior
PAC
##dict
Kenne
experiment
##-lived
Jefferson
##VS
##stance
spread,
37.1
##onia
Mississippi,
Pump
Driven
##VD
##ERE
succession
##oking
PROVI
Julia
Alcatel
##site
##vr
settings
13.1%
Financials
non-refundable
exe
Evi
lifted
Mack
20-year
##wind
(like
##Clo
Orb
Pap
0.59
repossessed
interview
Instructions]
##I.
Publishing,
Insight,
MWh
Gir
Kw
##UTI
##ilities
##ape
adapti
Concern
##nstr
accret
results..
##-Mar
##etion
##mming
##fici
##acqu
company-
criterion
Hoffman
##bso
##esto
brokerage,
##lene
##uil
Buff
MSTL
invi
unitholders
##ley,
Outperform/Buy*
co-promotion
Renaissance
##-tra
emphasizing
##/pr
(Pro
Company)
(QFC
tissues
shutt
non-per
fractionat
above.)
(DIFC
exercising
Guidelines
2723
##ission
unlocking
Fur
##tinen
refurbishment
##mone
unst
non-A
##itat
laws;
Genes
##Th
##trust
Switch
1.26
uncomp
Ups
Companies.
losses)
horse
141.
Move
##utt
Deni
phenomenon
Dougherty
##dian
FFELP
allocation,
Grumman
endeavor
##zon
advantage,
ts
O.
DFSA),
companies/instruments
FirstRand
officially
38.6
37.3
##vided
stems
Branded
QFCRA),
##.bluematrix.com/
##fferi
till
instability,
collectible
Idea"
##rier
##inch
##data
?H
substances,
region:
recovers
penetration,
essence
##Store
pot
iDEN
impartial
ane
Yesterday,
implicit
##mana
invoices
architectures
swe
Perform,
##NX
gel
distort
Colla
##uld
polymers
Ivan
directory
custodial
portray
loop
Glo
telema
##regat
##gesic
##aka
Cott
(SG
##C"),
manage,
Effi
Contribut
pac
dispersion
Challenge
Conclusion
Ch
##lysis
##bers
reform,
expenditures;
284
##olidated
##mmo
overa
Aru
##owe
##50%
journal
Oth
Gay
(sh
(ST
##onde
overvalued,
(The
##cab
concluding
Food,
Eurone
Cons
12-24
randomized,
1B.
##hips
viruses
finalizing
##rder
streamlined
555,
##-Fu
downside,
Off-
Butt
147.
Drugs
("SEHK"),
current-
ADDITIONAL
##dica
Stre
Ral
Alzheimer's
run,
##mption
Concerns
##ody
##UME
Dre
##mous
SECT
confer
gathered
Keefe,
Hil
##isclosure
lesion
##ositi
Missouri,
enthusiastic
4Q9
medicinal
(31
Roc
DFSA
specializ
deliverable
consulta
##-sponsored
##pharma
basins
(though
emit
##ions,
##/disclosures
##growing
subpoena
marr
Clearwire
##9,000,
##nancial
##iu
stock-
Guarantor
Esp
Corners
0.67
##-al
Mig
BBBY
297
circulat
4,9
(DFSA)
Pas
##6,000,
?U
506551,
Corporation.
-5
##nchis
##got
Waters
284-
verdict
Gannett
##atri
Ov
38.4
2-3%
Registrants
##ives
SPA
##(c
26%,
("CIBC"),
SYS
##BIT
outlines
Cond
netted
geared
##add
"Other
redi
sub-a
Russ
"sho
##ntra
invention
Kentucky,
color,
Year-to-date,
'9
registry
##eate
Vint
Amort
##CEL
##20,
##½
(average
##tperform
appr
Thursday
ske
decides
Band
www.morganstanley.com/researchdisclosures,
tolerated
##luti
BAPEPAM
##deri
prog
licensees,
90-day
##-fe
##”,
##ronic
infi
dime
##WS
##currency
pep
##dat
performed,
H-shares,
[V]:
CHA
GROWTH
##-tu
##volu
Rhe
outages,
(R):
##ego
Alabama,
-.
winding
##.2%
unioniz
Christi
1,70
.6
(des
Come
384
##scri
##right
Arkansas,
staggered
debt)
contributors:
000
##dl
tightly
reinstate
contend
##xico
suites
pru
Samuel
Israeli
##burn
Decl
##quest
implicat
headwinds,
Wolfcamp
RVS--Restricted
8000
##15,
##np
##ntit
FUTURE
Schneider
Ane
integrated,
Chand
workersÂ
490
prevalence
##eme
reevaluate
Sou
Perform:
##ingly
funn
##.4%
QEP
311
http://www.csfb.com/research-and-analytics/disclaimer/managing\uconflicts\udisclaimer.html
##Tu
resellers,
histories,
jun
info
accidental
##13,
Anything
##101
analyses,
39.2
Way
Q1:
twenty
specializes
7:
centraliz
Inc-
Andre
Valero
Bac
hea
##URI
2003)
Disabilit
Minnesota,
replenish
competency
(SE
##owen.com
compressed
bolt-on
automa
NFLX
##ASE
Haa
Conso
##erating
banner
149.
Apple,
NX
communicating
INTER
1983
Logic
296
##lak
wake
analysts..
HIG
##was
##trade
TOPIX;
##arte
revealed
298
Alleg
-0.
engineers,
edition
"R
##.7%
monitored,
co-l
##license
(A):
##xima
##walk
199206298Z)
uranium
Idea."
Authority's
##Stone
Swan
##duce
augmented
and/
##@sec.natixis.com
shrinkage
mechani
("SEHK")'s
Mueller
Underperform.
Equifax
##mitted
(Figure
cli
FiOS
Accepted
39.1
non-traditional
PHI
Felt
Pear
##medic
donat
Leading
ENSCO
Amgen's
DN
##otr
"forward-looking
Equal-weight/Hold
405
jack-up
##-reg
domina
airfr
##quality
Shelf
changes;
##pter
##ipat
Act)
AFL
3,500
sticking
Disney's
Cyp
##national
##elect
CSSU
293
thoughtful
Broadl
##vera
##-cycl
adjusted,
God
40.5
telecommunications,
dog
ex-U
(Not
mid-to-
?s
handi
##nomi
14.6%
14.2%
budgets,
Impairments
CPU
323
Mye
Sport
work-
TRx
##/Mer
subcutaneous
universe*
Register
##cture
computing,
Stanley's
Bana
Alltel
Rituxan
##olume
##ige
agreements;
ConAgra
background,
phenomena
Look,
pre-opening
late-
NK
MAP
14.4%
F4Q0
Sanmina
##RRE
##aso
explo
Ampli
27%,
##mni
##pted
ever,
differentiating
##RNA
onset
clock
"Un
##erat
THC
(SI
##kind
##hter
dietary
hopefully,
days'
52,
##illi
floater
animals
VT
Orphan
Mm
##TN
##regi
##phe
Harrison
sharpe
Zions
Repayment
May.
crow
##expected
##buil
##LAT
bac
39.9
Neutral/Hold*
##3%)
wins,
meta
Biomet
disputes,
Novellus
reallocati
Insu
Difference
(amounts
##fat
wherever
Everyone
##asset
talks
biomarker
##/q
##plic
commut
##orted
##baum
seating
BNI
(inclu
EMR
services)
(CF),
##nib
chopp
neutrali
##@j
outer
Snap-on
010675237
##dos
reinv
Rout
##HG
Sensi
##age,
one-t
actua
##diate
##-01
##umma
##bes
shel
##Br
##reate
##ine,
Depository
resign
Vanco
intense,
42.5
##fast
unde
##fn
##K-
interven
##@jefferies.com.
cham
Shore
Delinquenc
fitt
Parkinson
##-service
abr
##.asp
hoped
inaccurac
Vor
shell
##vine
##tria
Zone
non-vo
"Buy
Write
146.
runway
Entr
Adel
Sak
##riad
##itia
##idential
AMI
810
##gma
Barri
##asona
indexes
debtor
##two
##eling
revenues;
13.9%
1.95
##pkin
##eight
KFC
##rais
tailwinds
phi
10K
##and,
##sable
Optim
Numerous
attaining
containerboard
##H.
##llect
##erta
memo
##ritical
##odi
Ratings:
?St
##nde
Cana
ATS
##too
##ounce
##amp
Policies,
##essi
unpro
GMAC
will,â
Tric
Eq
##nau
Soni
##cally
attests
Nigeria
Immuno
21st
##rporate
therapies,
Risk)
##Ch
subjected
passengers
election,
##contin
tubular
TAXUS
unres
Cathe
Bett
stricter
Authoriz
trac
stockpil
Reit
##Gene
built-
ob
build,
##PCS
leuk
4Q07
better-
##jud
BNP
B2B
seemingly
compress
##2E
148.
slowdowns
##str
county
Certified
Added
Rica
##pit
Y/Y,
ACN
##-----
##rav
##heimer
shift,
Stable
Oilfield
Frederick
Pie
Agency,
Leaders
.7
##ligible
enact
pest
##hares
unlevered
##uve
Anc
165.
directors;
Outl
•d
Synerg
Argentine
Trusts
Duncan
##mental
##fig
##controlle
Ai
767
640
##tf
Face
Butler
Appea
14.7%
Marty
Kay
SPS
(No.
##bbi
expectations.
38.7
Outf
shoppers
SMA
##oba
##ev
POLICIES
##rde
##avis
noninvestment
##IX
##yp
president,
##ieving
Sank
308
moderniz
VIA
Coors
##2%)
view.
##mu
##iqu
hereof,
developmental
Address
JN
amortizable
QuickBooks
##inera
sub-se
coo
##financing
rente
##-ad
30th
##iger
fueling
(f)
##ocity
soci
polys
height
Nabors
##tici
Sarah
##netic
renamed
overc
##g.
Tho
##/30
property;
non-employee
IPR&D
defenses
1982
Wad
family,
IDC
##Val
Vermont
Unl
Indebtedness
##HER
quantifi
##conf
need,
customerâ
##-Lo
##annual
segment:
Tob
##atu
drug-
estimate,â
Attention:
##times
##dock
purifi
danger
Underperform/Sell*
gains/losses
appearance
Trailing
Kit
##inn
##abilities
Deco
5,1
Vive
##ineering
SGP
35,
OG&E
schedules,
radios
18.5%
(PC
##@m
losses;
lineup
##/bbl
Programming
##ergy
openings,
uneven
##mping
estimate,Â
DOC
Cambridge
urin
pre-pa
##solidated
licensure
anxi
--------
##oreign
re-leas
Slightly
##mini
##-Ma
##i-
##izo
0.0
"plan
##Banc
##-Related
##linical
poste
Matrix
Fibre
affinity
Vit
U-
Tig
Fai
Bhd.,
dynamics,
Cypress
##fold
##y"
300-
("WFS
•di
embo
38.1
scoring
Nordic
##phrenia
##physi
Ino
##.....
##fone
5,2
like-
Electricity
morbidity
##L),
##,000)
##opera
M&A,
Hib
influencing
drug-eluting
endeavors
##icient
winner
reorganized
##iplin
indicators,
jurisdictions..
Shap
alloys
Thrift
Cards
terms;
38.8
##ild
Turner
Connection
##sali
exte
Prevent
McN
##UT
##ande
##rot
##mination
Tommy
KCS
clients*.
Investors:
Devices,
(fu
distr
subt
Carre
##handle
294
(Ta
##ssions
##gni
TSYS
##graph
Stephan
Colle
##ssemblies
investees
##67523
safer
examining
S,
coins
S:
div
##emo
solvent
unions,
residence
Gai
##shir
##nant
tract
quarterly,
11,000
Vas
##chester
##0M
expedited
reactor
##mped
Shaw
Gathering
antic
1.22
##'11
welding
utility,
1.23
##omet
payback
##Inc
##pack
75,000
##M),
##profit
sport
Coffee
CMP
Appreciate
13.0%
pork
inse
boutique
6,5
##.1%
##limi
semis
Vioxx
Career
##ate,
Meli
##tsu
##rong
in:
upheld
Relationship
P/CF,
portfolio;
Heritage
41.5
1988
sums
non-regulated
financials,
WorldCom
practitioner
fifty
1.24
showcas
lingering
##-Mc
##forme
155.
##-sp
##-sheet
SSD
Belgium
self-i
front-
vers
reli
##gible
307
Grill
vitro
Revision
Press
intersegment
009
##an-
##NB
##colate
includes:
constituent
Enge
##ordinar
Independent,
machines,
colleagues
Finish
Appalachian
Astellas
non-Japan
finds
PCs,
Dela
BUY:
1.11
##rle
##ared
Guaranteed
Clini
tailor
Toshiba
E.U.
listeners
SMS
http://www.op
Passe
##rates
Toushika)
shortages,
Matt,
“f
nearby
Heavy
ul
foreign-
Euros
##mulat
Bren
##2.4
asbestos-related
Income/
BW
Aro
reconfigur
proto
LOE
theatre
robotic
contemplate
##8,000,
flights
15th
##minist
trauma
##ulg
ordinances
Jin
seasonal,
##25,
##-state
PAY
(51
fra
660
##ECO
numeric
substa
212.
##xie
pre-re
co-pay
Gue
annuities,
##ffici
eBay's
##derl
obligations;
freely
##wk
fibr
##material
##aS
possibilities
exchanges,
##R),
##1.0
allege
Celer
##1,000,
contempora
Inc.)
kilowatt
28%,
Basically
5%-
high-value
##pur
DTC
(k
cemetery
saves
less-
Bandra
Deepwater
328
harsh
FX,
dialing
(B)
Tie
Japanese,
Phone
SON
Accu
co-o
accelerates
L-3
16,0
lags
Tek
321
##prim
##ctiv
okay
low-d
Hum
Geographical
##Can
non-operat
Holli
Illu
after-tax)
170.
DBSI
##anti
pillar
##-tr
Gas,
Fea
Municipal
##/sa
##intensive
Adr
##rary
##ortion
scanning
nav
(8.
##FIC
insolvent
WAG
80,000
14.8%
assists
implantable
##.8%
criticized
concentrates
ethical
Interestingly,
admit
##vance
##tiary
exemplary
non-tra
##2,000,
##develop
Wireless,
##zzl
##ndan
random
frag
congrats
##enberg
fri
Perf
Anne
##hang
processors,
outg
309
##operated
##curren
builder
Nico
Burk
billion.
ava
imprecis
drop-
##ends
Valve
##3.5
##Gas
Moha
clients:
##r/
operations)
yeah,
shaping
districts
##essor
##viden
J&
##qualif
executives,
Administ
amounts)
interfer
Thailand,
REITs,
AFFECT
##-produc
overt
Atripla
##dex
##-08
##ie,
306
##itec
Peg
Kapl
multi-b
MIS
70,000
##FF
immunotherap
destocking
flattening
decelerate
Aspen
AMT
**The
platin
Dim
350.
preparer
invo
Coa
##ophi
pneum
append
Outperformer
pharmaceutical,
acce
subsidiz
Ah
##VR
two-w
noncon
##centr
travelers
citizens
##ergi
##mir
##derma
Political
##ahe
transforming
restate
Nut
more-likely-than-not
JSL
120,
recordkeeping
Sw
151.
##lte
middle-market
##tribut
##rogen
JC
##ustomer
freestanding
captures
SP:
##64.
##orts
##cka
NEE
IMPORTANT
roll-
detected
(Pa
##formance
Wan
326
##S:
##2.0
##/Bu
2021,
Ros
##N.
measurabl
Wins
Valuation:
212-
Trou
PE/growth,
##fix
580
large-
Label
Aqua
##(e
Uncertainties
Esse
environment;
S&P,
##yar
formulas
Ryder
Nis
##focused
irrigation
##umen
char
Redeemable
##aster
##cripti
REP
##adjusted
describing
Viread
TV,
Infe
chart,
Pure
Commitment
##dinar
Bias
on-balance
nondeductible
Former
##scul
##metri
WS'
Agreementâ
glo
Terms
3Q08
(NA
expand,
Cin
Subto
##Dec
benchmark**:
delinquencies,
Sir,
defaults,
arise,
##Pat
##revenue
Possible
Underperformer
Til
##cession
legali
flying
##-We
efficient,
inflammation
homogen
Elliot
##utilized
flow-t
Posta
368
##timate
epide
##unately
percentage,
##6.0
##osp
concern,
##entis
2011:
##iso
stockholders’
oz
Omega
Medtronic's
##DN
##sitive
growth),
four-family
Correction
knock
tended
Ford,
Extrem
freight,
networking,
1.32
##arne
breaks
consistent,
Genetics
Either
CenterPoint
##-Ge
Dry
##iff
he'
reus
pharmaceuticals,
Fasten
EBITDAR
2014-
##logist
escalating
non-pr
Weyerhaeuser
Gray
DNB
Northland
152.
WPL
(expressed
tuck
technicians
operations.
journey
CAPTION
##rame
##-backed
healthier
Carri
317
helicopter
refiner
##RATI
Xa
Stockholder
2.20
##Cons
three-tiered
outbound
##4,000,
##Health
compel
Sole
BNY
##report
DJ
975
Aur
amortization)
##dish
Dissemination
##DA,
##epi
(ope
##only
##&C
##hanne
insur
autoimmune
Phillips
##000,000
Indications
unreasonabl
2011..
pathogen
Accreti
anesthe
Watt
Sas
sacrific
rebates,
##sla
SLB
##epr
PMP
Instruments,
robust,
mem
States;
Kap
##asure
Giga
##eneral
CLI
(fl
bode
?2011
Whatâ
Verizon's
Ownership:
Countrywide
reasons:
Tudor
2005)
third-parties
Appa
##ancer
glu
##EST
##wau
ACTI
(res
##--i
steril
Poli
##dden
##eous
##alis
inland
STAR
CJS
elastic
tendered
2.15
##ict
Dangerous
amendment,
AAP
removes
1Q07
##digm
disciplines
HECO
Conflict
Enabl
##4%)
##ists,
achieves
Perri
exporte
Huang
Bahama
##.9%
##mitt
Initiation,
AutoZone
##performance
freed
compensates
Mid-Continent
Aj
competitors'
##ver,
lot,
summa
lina
(Unit
##lemen
##cogni
##amo
Covenant
##ugu
##ext
##employ
Insurance,
##luted
##7.5
##vier
##quidity
Spine
(SP)
Initiatives
##inancial
•c
digest
breath
Walgreen
Cigna
Hold/Neutral,
Compensation,
##isfact
kinase
edit
Congratulations
##nden
marketplaces
GMV
##-na
vis-
minim
Modul
##@credit-suisse.com.
##icens
BN
##ilu
##-70
##knowledg
Aven
second-h
catheters
5.50
##9.0
##spi
P/B
2,30
14.1%
Shopping
PLA
##/mo
year/year
families,
##rosi
Hyatt
##NER
(Use
2009-
##B),
PEO
INV
##YL
(Ph
##perform'
volume-
protest
Reac
L.L.C.,
39.3
##inal
##alin
solidly
15.6%
14.9%
03/
laptop
##7,000,
net)
PUR
##lateral
exa
anti-c
Digi
##ennial
answering
Alli
amenities
Rain
Portion
Hungar
CPP
(IP
Ora
pictures
go-forward
experimenta
creditor
##-care
##tance
WO
Frag
55.0
##\u\u\u\u\u
Rubbermaid
Pro-
Gener
##heduled
Lime
AML
##treat
Cintas
##gulat
approximati
##loy
pav
2013-
Express,
Env
(Au
Winte
##V/
##hesive
##LIC
transp
Crow
##osed
##impa
orally
Congressional
administrators
resultant
nono
non-ta
0.87
##inuing
##ic,
tab
surro
estimate..
scaled
##/ma
##/comp
TIM
Mode
Sandoz
amb
Sot
38.9
underse
spots
Lamb
##O.
formulary
##ntrolle
Hamb
##:2
##graf
Winn
Kos
counting
Vari
15.4%
##regulat
associates,
insulation
Strip
herb
accountability
Synagis
Sherw
2010..
(da
##the-m
Rockies
Statementsâ
##lectric
peripherals
##.gov
##oriz
triggers
TP:
##-2.
PW
Glad
motivati
##of-c
##uid
guideline
cap,
400.0
1H1
##ZN
under-pe
39.6
concerned,
Emer
##liab
•S
##mortiz
prosecuting
belt
Fac
produce,
Est.
##pped
##lum
nurses
IMPA
##DING
##gd
Earned
convenience,
browser
Movi
Laur
##fore
Stent
frames
Emergenc
##unes
Raff
##-Sh
##3.0
Outperforms
5,7
(-)
##-part
source,
Wide
##stim
##idin
##eka
Miner
Partic
vinyl
Conclusion:
will,Â
##1.2
GlaxoSmithKline
##redi
Non-operating
364
338
##shore
##Tex
##ansi
price..
Stronge
Gru
Cycl
Coventry
transporting
##hdale
percentile
Things
1.36
corrected
Java
haz
EEA,
China's
Acro
interrupted
preserving
Firstly
570
EchoStar
##enh
##approved
##ito
err
##orou
spectr
Alte
Cono
non-m
high-risk
42.0
biome
Kla
IoT
Mosai
2.40
re-r
period)
##global
claimants
SEC's
##.au
0.77
poses
##asan
Indirect
Beverages
coding
backbone
Hospitality
Rite
Innov
##2C
supp
Automatic
Stanley"
invalidat
Solectron
(bo
18,0
Certificates
Casey
##lytic
dissolv
Nashville
##nst
ultraso
##ML
##cept
fusion
Uno
Renal
(includes
•P
margins.
anomal
sec
0.76
##acteri
species
Alba
ost
##aime
##/su
Written
(excl
up-
1,300
##rei
situated
confirming
##14,
##pple
university
Borrowing
Miscellaneous
##3,000,
signa
pre-existing
Recom
##Inte
urolog
year-o
##kine
welfare
Anders
##halo
is.
cable,
enterprise-wide
asthma
Qualif
153.
servicers
retre
indemnifie
##9%)
Taxable
9,000
instruction
Pon
Globally
Newport
KE
FOX
##llard
##cce
Terroris
Quarter,
##scopy
##gis
Roo
MMC
Defe
80.0
331
1.33
Sovereign
confi
resu
353
tric
Nomin
33-1-58-55-
trea
Hybrid
toxicity
fulfilling
audits,
Wol
tablets,
##CTI
##ores
##asured
Takeaway
Divestitures
Kh
Apo
483
160,
analytics,
##tat
terrestrial
Keys
##6.5
SAS
Ave
Ach
Tactic
diameter
Verd
##dec
flooring
##erti
share.
motivated
##valent
cylinder
Warren
(M):
proceeding,
##A"
anti-b
##HOLD
estr
(Inte
homebuyer
##Par
##nco
Trum
##FX
[DATA\uTABLE\uREMOVED\u4
##Le
retirements
Todayâ
##pal
shor
Tab
ROC
Meyer
invoiced
JEFCO
15.1%
nonperform
make-whole
##stome
mandat
antivir
localized
cured
Nia
contribution,
##0s
##wr
share;
merely
hedging,
Job
##position
##orr
offering)
##V-
sus
Pepco
49,
##itation
alliances,
Breakdown
logistical
books,
ACM
Kingdom:
##DA)
research..
(15%
);
S-3
##stru
remitt
(Spec
proforma
Impro
Diagnostic
inve
consumption,
CST
2.25%
(higher
##Conn
##oyment
Sl
##ds,
desi
Chat
super-
Wir
Sent
Inten
Harley-Davidson
Byr
##fts
Wilmington
##STA
prosecute
300mm
"will
operates,
##stit
0.74
##W):
pigment
noteworthy
LIN
unit's
Newf
##-Not
##dir
lease-up
##hod
##rog
Versus
discusses
impediment
Federal,
0.71
Raise
Grade
DBSI's
fiber-
(please
•inc
composites
Spot
Isa
string
specifications,
Newly
41.0
##-ve
##umu
fashion,
##anager
UNE
2008.
administering
"be
##azy
time-consuming,
declined,
payments;
ICA
FLOW
HBA
Disa
"Ac
self-storage
##tud
##ch-
reinsured
Accredited
income;
divesting
Ema
##ERC
non-me
fen
Boul
habits
Zero
##nounce
RAC
Accru
##Station
##-bank
project-
Derek
classes,
FPGA
395
Lar
Meh
##enu
##ctu
successive
recycl
smallest
reva
impacted,
Loo
kill
billboard
Pickering
enterprises,
Clarit
##(1)
up-t
loose
Sept.
selection,
Microsystems
vig
deliveries,
N:
39.8
methane
applicability
Academ
importation
Connectivity
AMERI
5,4
##ido
timberlands
data-
boot
3Q02
##valenc
"Disclosure
##/da
patholog
differed
##charg
##utiona
##aten
Skin
##ford,
##stanley.
Underperforms
closed-end
LIABILITIES
##ites
##ervice
Pho
started,
lic
##CON
##-centr
Season
(cha
##rack
flag
"lo
Kil
70.0
##grad
Nebraska
##Bus
finger
##)-
reinvesting
determined,
Hos
Ech
##ading
defects,
Genomic
look-
Intermediate
##-cur
##etti
OMX
15.0%
’
price/mix
indu
##spective
possesses
actuaries
LEG
##purchase
##dicat
Respons
Macau,
high-de
##8\uLINES]
##tep
39.7
##hire
FDA-
rect
claims;
Scale
PAR
Neutrals
##nsus
irr
ISP
bypass
0.78
"buy
##velope
termi
sixt
receivers
pleas
IL-
(3%
##LB
Motorola's
140,
FCX
##up,
Headquartered
vul
##tag
##WI
##cien
should,â
superstore
quiet
##Pas
textu
Novell
moratorium
blo
CHANGE
15.8%
MaxVal
##X),
##daily
www.t
##rifi
Image
CFC
1.38
##sells
805
0.73
##Sma
##EF
##fusion
post-m
1,400
##-hour
(ea
##o.
##inent
CIE
##stral
transformational
carr
embed
brew
OCI
Commission;
AY
(26
##OA
rat
##l's
Accelerate
?012
##/J
##sh,
Conservation
##kg
attention,
##GIN
##cure
end-of-
##kon
arose
DCF-
Ole
##nsit
##alth
deplete
counterc
Queens
COMMENT
##Hi
##Câ
##space
##exo
consoles
200m
##tw
##E-
Syndicat
##vestors
non-ac
dayrate
provinces
##TIE
##eris
DHR
price:
CRI
##uy
Sorry,
Creation
##nergy
##d'
##open
USPTO
mercury
aware,
(una
Minneapolis,
Brink
2-y
(INB
intrusion
bench
Carbon
15.2%
SCI
Fr
##9.1
##dequa
##buta
complies
##scope
cost-p
"tr
##domina
##hav
affirm
NOx
appropriation
POWER
##/Hold
39.4
##ocation
impacts,
Thor
##city
364-
3-D
##-Related:
USF
AVAILABLE
-7
risk;
X-
CY20
##-Rand
caller
Trustees
trimming
kit
##odin
salaried
blind
FRX
##mospher
outcomes,
##ed-
Client/Non-
##Group
##ddle
##cale
Underw
240813,
##ctin
Pall
##90,
##/Fl
##mco
Deteriorat
Recon
compounds,
Colonial
125,
##plast
objection
Tablet
##mento
1,25
##1;
##rrh
alarm
intermediate-term
Obtain
##mbly
severance,
indication,
dissatisf
rack
Platinum
McAfee
repayments,
Mega
Champion
plans;
##-los
Somet
mid-te
jurisdiction,
Phoenix,
attorney
Almost
delegat
Clint
154.
##xon
##make
Simul
MOT
properties;
##Pharma
##rbe
antid
620
ventilat
Suites
price)
Tc
##.O)
Rewards
quarters..
##Cr
subsect
Think
##mme
outsized
¹Target
Supplement
##rib
##omera
##umo
3-4%
##-eff
##nual
recalls,
##pil
nut
0.69
ensures
bin
##ciate
surgery,
labeled
barr
Yang
CAF
LR
Ward
(amo
156.
attest
Randall
162.
self-p
CareF
(im
##8.0
testimon
1989,
##il,
notion
##&M
kn
Alu
(that
##ceptive
third-
spu
fabricat
cans
KI
##dvis
Outp
(case
Claim
5,6
StatementsÂ
##perce
merging
FTT
##anging
subm
##typi
##lun
blea
FY03
•pr
York).
Debtors
interc
weapon
*Relevant
(more
##ulta
anti-t
SUPP
Giv
##cac
##lw
Merri
EV-
##pl
##bran
##phony
logistics,
Thereafter,
ONE
##tane
##enable
Sabre
generations
50/50
precautions
##AAP
##lr
thrombo
MAN
Montreal,
##resi
vent
total)
Spar
EBV,
pre-f
Non-US
##Other
3),
##rice
##idia
grade,
##orin
decorati
##imet
unveil
Abercrombie
##-rich
##rvic
resumed
housing,
nurse
bags
manipulat
(4%
echo
##WAR
##ysio
##ptember
algorithm
Wave
##for-p
floods,
Mir
retransmission
##0;
Sala
"Sell
overla
MiF
(SA
##-than-temporar
climbed
LX
Element
40.2
314
##/Com
trusted
Johns
Alo
##verti
ought
hospitali
USS
(mn)
##2.3
##02,
TBA
sink
rup
reject
propel
institution’s
gram
industry.
##otential
who'
beh
indo
obligate
(Comp
Spart
circle
Nonaccru
2007.
##merge
realizability
2016-1
sou
Katz
"Legal
##Hea
broadened
post-t
abbreviations
pro-rata
occupa
circ
honestly
Metropoli
##uart
long-h
##-Fo
inso
period;
walking
privately-held
(CF
Tap
P/FCF,
Denmark
personali
fractional
Sava
HSD
Glob
Discontinuation
"Ou
re-me
blocking
Stephens,
##tell
##stai
##ske
##-ce
defined,
##/r
PacifiC
65.0
##ysi
rate.
(relati
##conse
nations
YoY,
9:
2026
prediction
molybdenum
equities,
Sund
sala
Terri
##glass
(1,
photograph
Instructions].
Identifi
Weake
Norfolk
Dio
Mec
(po
Westin
FON
##c)
Unilever
Arn
##Jo
melt
##tooth
eP
Variance
1,600
##,20
eff
15-20%
Replacement
1.29
##ipr
"Li
microco
Witter
750,000
Gou
##once
box,
##nial
bps)
Non-Rec
Meridia
##suing
1Q02
Interest-
324
##while
##thane
##sult
Long-lived
##cet
purposes;
##,60
week's
moi
Nad
APD
##iture
##inic
2008)
##4.0
sourcing,
Presently
(6%
("O
##Mac
##CU
##-fa
airb
MTV
##FM
##ccm.com
##enture
mari
2Q08
##-Mi
noncurrent
from:
backh
Media,
##os,
Import
DEC
322
finali
Continu
alloy
Terex
688-4
##-Th
attainment
Switching
##8%)
##xamin
##org
volunteer
Match
##pples
##duced
Medicines
Donnell
Horton
pel
##sche
non-cons
##ies.com
negligence
Prob
Gy
Dependen
##best
Residual
Objective
fabricated
data;
arranged
mapp
?0-15%)
##CARE
Wors
1.19
Distributors
##9.5
##modulat
##span
##etition
##Lea
##)/
to-
##dly
co-brand
Formula
##9.2
##/disc
##neu
tentative
age,
\u\u\u\u\u\u\u\u
Naviga
##-Be
Interf
Borde
Bets
##uration
##ssel
PSE
##ulat
Rin
##-pay
landfills
CIRA
Vaccine
PSEG
##2.2
##rni
##egis
agreed-upon
(consist
##ticat
benchmark;
RELATED
Cyto
##genera
overrid
##/n
##-ope
clip
FIT
##tronic
interoperability
store-
broker/dealer
locali
duration,
closed,
##sum
1.50%
Genco
53,
##imes
##debt
##ay,
over-a
##-scale
##econd
coin
##***
##uge
##writ
accountant
vacancies
pronouncement
NASD,
Lodging
Sant
Tour
CY10
##tenan
(CIRA)
ced
CFTC
opti
customize
Embedded
##7%)
(TP
Ukrain
Race
##4.5
##30/
year),
##lib
##anticipated
Spo
Heat
"sel
##raf
layout
Association;
back-office
Inh
##/Disclosure
cob
FluMist
DEN
##chemical
lithium
SanDisk
tells
period-end
Inc.(
Formula:
##www.
Pace
Nest
Sirius
motions
R&M
nerve
Ghan
forb
Surgery
157.
while,
acquisitions)
RWA
Marin
www.morgan
Athe
##gnized
##in)
##gand
43.5
publishes
maybe,
##loca
##aria
Preview
lower-p
consider,
Ice
GMP
##iza
SCA
Agen
defe
Convergys
##1.1
Indexes
Compar
##Code
Eckerd
survive
Congress,
shoot
US-
##-play
Hemi
unlawful
self-service
adhesives
Collective
Albertson
Lui
Healthcare,
##nture
demands,
15.3%
##imb
##gati
already,
##onom
vacated
BioT
##sation
Evol
anecdotal
secondly
##jar
##fying
327
##nef
Toyo
Leonard
besides
Materials,
##quiri
decelerated
0.75%
"other
##oral
##2.6
##mbur
hol
##/ne
Discl
Axi
##som
##isation
##iction
Finance/Investment
vitamin
multi-channel
inspir
(inte
(Price
Bear,
compatibility
Consec
Hir
intima
##RIC
##ands
intend,â
2.10
e-b
defibrillat
overpay
aligning
surviving
125.0
Superfund
Cub
##ERIA
##dc
Wea
Ati
##ols
Plum
McCorm
sportswear
Reducing
2Q06
skeptical
GU
ESOP
strategists'
anti-inf
Org
NHL
500M
##hritis
inco
fed
keen
We'd
C.V.
tooth
Exper
Changing
##,40
Kids
Flags
"Company")
theatres
##uctor
innovator
dermatolog
Developing
litiga
amazing
reeng
DCP
tree
out-of-pocket
DVN
##ouble
outlier
INTERN
HOT
Novo
Blake
##00%
2.60
150.
Elm
ber
##eries
tur
(million
##SG
##istribut
uphol
Rete
NPD
28-
##B")
malignan
USP
##lized
##ccr
predominan
pie
advantages,
##neck
lapping
dent
setbacks
##KO
Rele
(pos
nonf
Indianapolis
40.3
383
occasions
Merchandising
Ability
##2\uLINES]
##fon
Spin-Off
Potter
(und
originations,
functioning
finishes
Disco
seg
educat
##zard
approval;
CERCLA
##chm
##aluat
recl
Growing
Although,
##ptor
52-Wk
##Cal
JIL
Inves
Inc;
##,80
vary,
8-10
Cine
CCR
relapsed
Kings
Protein
wide-
uninten
Areas
##ychiatr
beam
Intermodal
0.82
(NASDAQ:
native
loaned
Lighting
rescission
Tropica
nit
commissioning
HEA
Non-Agency
Dale
(over
54,
Reba
Elig
flatten
correctly,
40.6
Tick
Amo
##-Ta
fluor
Subsequently,
(50%
underfunded
subsidiaries;
##pprova
overcap
intensified
Beli
180.
100bp
Mechanism
stoppage
Roundup
##--------------
Publi
15.7%
##098
migraine
co-investment
Outperform-
bonuses,
Cessna
##phis
##deon
cardiology
Maga
##Tel
##lectronic
cy
SIRIUS
Schr
Dos
##sley
alt
Otherwise
floating-
breakfast
Scheme
Contractor
BGC
RFI
##Gra
case-by-case
mixe
##to-d
##move
337
##inv
Elle
(Si
SEE
OXY
##(a)(
##.t
##wick
investee
##x'
Q-
centrally
##.m
ratifi
NPLs
Philips
##mbar
CMA
##AÂ
reallocate
(ass
PSE&G
PRU
57,
Asp
158.
assisting
Then,
Equivalen
Relation
Inst
Centen
##mph
Debt,
172.
(telephone
pre-approved
por
nonres
fabrics
cosme
Fayette
##lassif
##apeutic
abs
Finl
Provi
"Comp
##REIT
##arc
substrate
comparatively
Instruct
You'
Hitachi
F1Q0
41.7
##kas
escalate
##itro
nutr
deserv
##feren
Dec-
bargain
Audio
Ago
##pmorgan.com
##ordinati
Stati
"normal
##anger
##acle
economical
Lama
Bhd,
##(b)(
##owt
##der,
connectors
Fish
Ard
colli
regional,
euro,
cleare
Aurig
##norm
##dustry
JOBS
##-Di
counterpart
Licenses
10:
interpreti
discre
Rubber
ETR
CVC
##mpan
duties,
specification
higher-t
##-release
##dicate
Cai
take-o
re-eng
Specifica
##fee
unsolicited
Mak
analysts;
Cus
Valen
Cummins
##burs
(acc
##30,
Imme
##ssin
patient's
blocke
articulated
Thr
Stru
occupational
conceptual
332
##010
##tered
workforce,
Perma
##/01
##s",
##enant
in.
Sir
Decker
(inc
##ntage
Empire
Cav
substitutes
co-f
Monday,
2010;
##6M
indemnities
Smo
##ervat
rema
policies;
chargeoff
HIGHL
##tali
(CP
##oci
Auth
##.............
"r
##mle
framework,
2006)
1-4
perf
artis
##-weight
premarket
Receiving
159.
rebuilding
anti-corruption
Obs
Vacation
discontinuance
RBOCs
ARP
##Mc
##iter
sequestration
##0.0
##nts,
estimable
##xx
unhe
occupy
deadlines
Lyondell
Belgium,
reservations
refreshe
##rrent
Sync
Driving
wit
Dem
##-acti
Cym
Repair
Registrant's
Merge
(PE
##quo
Techni
##liz
change.
##-edge
liquidating
MPS
Footwear
Achieve
1970
##serve
Interpublic
inhibitor,
##rges
cost-saving
Harle
Blo
##mcf
NFL
STI
PACC
##cery
deba
dom
Timberla
(estimate
uses,
pulse
problem,
Coast,
perfectly
pancreatic
On:
JE
Dan,
intend,Â
Dex
remit
measurement,
denim
adhe
##equivalent
bureau
Ans
Patri
Generating
energy-
discont
Brendan
tactic
##line,
Remed
option-pricing
diverge
LTC
##itters
inter-c
Kro
##,70
##terial
Runn
Perform;
ODM
##VIEW
##-grade
##lier
##igna
41.2
##-sensi
simultaneous
flow/
VN
PaineWebber
##operating
##lantic
##ensor
Non-Co
re-l
gli
4-6
##AIN
non-infring
##CIN
request,
associations,
2.30
##illion
succeeding
replica
inclined
(bu
##-affiliated
biomass
HG
##GATI
##remi
post-ac
BUY,
undetect
mid-m
Catal
bank-
##to-s
##allo
ties
disperse
##ffecti
##hich
14-1
##-basi
##,30
##zak
resignation
HIT
dependent,
##xpe
retri
www.morganstanley.com/researchdisclosures
prob
others:
life-t
in-st
brake
630
open-label
divestment
##pheral
Educational
(par
AIM
OCF
##doc
non-di
inhale
dependa
Optimiz
1,05
(AB
##nas
Insta
##discernible
stru
Andr
arti
Regency
slop
leach
##RIO
##7\uLINES]
3-4
SELL:
Adds
combinations,
IRB
Exclusive
melanoma
esca
record-
pir
may,â
dial-
352
(NR)
##rgy
Teradata
resur
##-av
##IAL
speech
mn)
Ada
Sally
Came
incoming
entrepreneur
Resta
349
##Sell
pads
non-profit
decentralized
##abil
Solvency
225.
(We
##omy
##erine
waive
Indic
##interest
unconditionally
transparency,
tornado
##erit
##ordi
rollo
deviations
lun
Cox
regress
##corporate
hop
cervical
add,
Conc
WHI
head-
(DCF
##ncing
Swee
##clusive
##/lb
fibers
##famil
preferential
16.4%
##on.
Stabiliz
Um
Murray,
Accessories
in-li
Molecul
(AR
##ilicon
vec
scale-
343
Mainland
ADCETRIS
##vad
myeloma
cannibali
authors
agr
Office,
Simp
##dustri
improperly
Problem
Crohn
445
##lient
##enden
securitize
prevents
forgiv
Avery
Completed
##RL
DirecTV
logg
laminate
Hamm
flavors
##ULA
developers,
Volc
Ost
##Ter
life-
##tructi
##mail
information..
gas-
Cera
Anna
##atient
anim
REPORT
(8%
embar
Guin
##ersi
Ath
##inst
•R
taxable-equivalent
Secondar
H&R
##Line
program;
modify,
Decline
##seni
Sophisticated
SVP,
coll
##gain
seventh
popul
Williston
reciproc
Proforma
Later,
centri
bottomed
boe
biology
40.4
##-u
relax
hee
amor
Web-
Prof
##hrea
##code
inflate
shares)
(equ
hydroc
helpful,
unnecessar
disabl
Moo
Longer-
Cart
##Mil
PRP
then-current
##verse
##onat
##cra
Impaired
##zzo
##rvi
Tels
Lio
##assa
contr
Viv
Vik
MEDI
Dial
IBX
##ét
##intestinal
80-
Veritas
CenturyTel
Siz
53rd
344
deeply
##5,000,
immigra
##ILIT
Gramm-Leach
?Ca
##uld,
##cum
subc
belong
speed,
lubrica
(Ga
##quency
sessions
##Cas
##bru
advocat
Nord
14.0%
land-
##On
Nearly
EMEA,
underwe
Antic
(EM
“in
reass
deriving
extru
CBO
1988,
##spa
end-use
C200
1.21
##rust
phosph
higher-p
##ths
capacit
(increas
Yesterday
Nano
Decreases
##entr
fastener
Result
Non-Operating
##istrat
CHK
16.3%
##:00
860
##denominated
Revenue,
Hanc
##oster
##contract
##nomo
patro
##sponsor
##sph
##moving
double-
alleges
##securit
GILD
fee-for-service
##fol
mindful
double-digits
negatives
delineat
Jer
675
refinancings
growth/value,
function,
Michelle
(dep
##4\uLINES]
Filt
##pool
(GICS)
##TRAC
##pite
##ignificant
##capitaliz
Stream
Assist
##yielding
ami
Mayo
incorporation,
credibl
Boi
562
##01/
workers’
64,
43.0
exploitation
##ä
Vince
Plavix
capsule
Manda
(cal
TECHNOLOG
Hag
-----------------------------
Enti
EVA
Dig
29%,
EPS:
Diego,
Gent
319
deposition
Memphis
##quarters
##practice
redundancy
(35
##scopic
internally,
(sp
##ide/
##LITY
##RIE
respondents
16.2%
##\u\u\u\u\u\u\u\u\u
##Power
censu
(technical
disp
agreement)
department,
creat
Fern
Date,
##ppr
##format
unma
away,
##session
##ropr
NTA
##atur
##6%)
Pfizer's
##Key
##lsta
##akin
Rochester
(vs
##hion
borne
2.35
##scent
##coll
carbonat
agil
##tensi
M-
implements
contamina
Anch
##energ
NIC
0-
##-dep
##vested
brin
GEO
Bush
Acceler
downtown
##/Mid
(Do
lower-t
Harr
"ca
Quintil
misma
1.42
##lass
slow,
government's
contacted
Dah
Connecticut,
##resenting
##mium
characteris
tiers
relaps
CIP
Santan
Questar
Determin
A-B
163.
##urban
##kom
distribute,
##itical
60,
40.7
publisher
NWS
40.1
Chin
(28
(27
nanometer
FINRA/
(fo
##gative
whis
##FFE
Unr
(wh
rem
aluminum,
Regulators"
anti-money
16.6%
territories,
br
denote
Loews
##ngu
blending
Compet
Cau
##Ste
##tora
##suri
midsi
Intell
FAR
EPS-
##-deriv
ene
continental
##erte
##TRI
obesity
nonbank
demand;
Phar
##ons,
reception
self-f
profitability;
after-
##2.7
##iba
ceases
carpet
Northcoast
Letters
Firm:
exclusions
carb
D-
350,000
##ss,
Snack
Oti
Hello,
("L
##sibl
isolat
debentures,
Accepta
##CIA
vend
1/1
##eig
Practice
161.
##/public
risks;
5-7
(principal
ophthalmic
guarantee,
Wal-Mart's
EXECUTIVE
##-Ter
loss-
liquef
56,
##ecut
disputed
corrugated
Compt
633
pertinent
bullet
Elli
destinations
##ORT
substrates
Vid
Too
##tla
##genc
wallet
seven-year
alli
FPS
F-1
Energi
(Tok
lumpi
Transformation
werenâ
statementsÂ
bubble
Zet
##q.
##main
##hthalm
AVE
mali
initiations
Creat
##-sou
regenerat
prece
##Up
##UED
neurologic
Atri
unsc
##ing)
Norm
##used
fires,
Offs
Ginn
##utu
##acto
circumvented
Amerisource
Airways
testament
sulf
334
##250
offe
calcium
quarter.
"Neutral"
##andr
Trim
0.88
respects,
overstat
Rollin
RESTR
##lim
##ffect
geoph
Herm
##bov
stated.
passi
Manager..
amplifiers
Mort
[...]
